{
  "version": "1.0",
  "truncation": null,
  "padding": null,
  "added_tokens": [
    {
      "id": 0,
      "content": "[PAD]",
      "single_word": false,
      "lstrip": false,
      "rstrip": false,
      "normalized": false,
      "special": true
    },
    {
      "id": 1,
      "content": "[UNK]",
      "single_word": false,
      "lstrip": false,
      "rstrip": false,
      "normalized": false,
      "special": true
    },
    {
      "id": 2,
      "content": "[BOS]",
      "single_word": false,
      "lstrip": false,
      "rstrip": false,
      "normalized": false,
      "special": true
    },
    {
      "id": 3,
      "content": "[EOS]",
      "single_word": false,
      "lstrip": false,
      "rstrip": false,
      "normalized": false,
      "special": true
    },
    {
      "id": 4,
      "content": "[USER]",
      "single_word": false,
      "lstrip": false,
      "rstrip": false,
      "normalized": false,
      "special": true
    },
    {
      "id": 5,
      "content": "[ASSISTANT]",
      "single_word": false,
      "lstrip": false,
      "rstrip": false,
      "normalized": false,
      "special": true
    }
  ],
  "normalizer": null,
  "pre_tokenizer": {
    "type": "ByteLevel",
    "add_prefix_space": true,
    "trim_offsets": true,
    "use_regex": true
  },
  "post_processor": null,
  "decoder": {
    "type": "ByteLevel",
    "add_prefix_space": true,
    "trim_offsets": true,
    "use_regex": true
  },
  "model": {
    "type": "BPE",
    "dropout": null,
    "unk_token": "[UNK]",
    "continuing_subword_prefix": null,
    "end_of_word_suffix": null,
    "fuse_unk": false,
    "byte_fallback": false,
    "ignore_merges": false,
    "vocab": {
      "[PAD]": 0,
      "[UNK]": 1,
      "[BOS]": 2,
      "[EOS]": 3,
      "[USER]": 4,
      "[ASSISTANT]": 5,
      "!": 6,
      "\"": 7,
      "#": 8,
      "$": 9,
      "%": 10,
      "&": 11,
      "'": 12,
      "(": 13,
      ")": 14,
      "*": 15,
      "+": 16,
      ",": 17,
      "-": 18,
      ".": 19,
      "/": 20,
      "0": 21,
      "1": 22,
      "2": 23,
      "3": 24,
      "4": 25,
      "5": 26,
      "6": 27,
      "7": 28,
      "8": 29,
      "9": 30,
      ":": 31,
      ";": 32,
      "<": 33,
      "=": 34,
      ">": 35,
      "?": 36,
      "@": 37,
      "A": 38,
      "B": 39,
      "C": 40,
      "D": 41,
      "E": 42,
      "F": 43,
      "G": 44,
      "H": 45,
      "I": 46,
      "J": 47,
      "K": 48,
      "L": 49,
      "M": 50,
      "N": 51,
      "O": 52,
      "P": 53,
      "Q": 54,
      "R": 55,
      "S": 56,
      "T": 57,
      "U": 58,
      "V": 59,
      "W": 60,
      "X": 61,
      "Y": 62,
      "Z": 63,
      "[": 64,
      "\\": 65,
      "]": 66,
      "^": 67,
      "_": 68,
      "`": 69,
      "a": 70,
      "b": 71,
      "c": 72,
      "d": 73,
      "e": 74,
      "f": 75,
      "g": 76,
      "h": 77,
      "i": 78,
      "j": 79,
      "k": 80,
      "l": 81,
      "m": 82,
      "n": 83,
      "o": 84,
      "p": 85,
      "q": 86,
      "r": 87,
      "s": 88,
      "t": 89,
      "u": 90,
      "v": 91,
      "w": 92,
      "x": 93,
      "y": 94,
      "z": 95,
      "{": 96,
      "|": 97,
      "}": 98,
      "~": 99,
      "¡": 100,
      "¢": 101,
      "£": 102,
      "¤": 103,
      "¥": 104,
      "¦": 105,
      "§": 106,
      "¨": 107,
      "©": 108,
      "ª": 109,
      "«": 110,
      "¬": 111,
      "®": 112,
      "¯": 113,
      "°": 114,
      "±": 115,
      "²": 116,
      "³": 117,
      "´": 118,
      "µ": 119,
      "¶": 120,
      "·": 121,
      "¸": 122,
      "¹": 123,
      "º": 124,
      "»": 125,
      "¼": 126,
      "½": 127,
      "¾": 128,
      "¿": 129,
      "Â": 130,
      "Ã": 131,
      "Ä": 132,
      "Å": 133,
      "È": 134,
      "É": 135,
      "Ê": 136,
      "Ë": 137,
      "Ì": 138,
      "Î": 139,
      "Ï": 140,
      "×": 141,
      "Ø": 142,
      "à": 143,
      "á": 144,
      "â": 145,
      "ã": 146,
      "ä": 147,
      "å": 148,
      "æ": 149,
      "ç": 150,
      "è": 151,
      "é": 152,
      "ï": 153,
      "ð": 154,
      "ô": 155,
      "ĉ": 156,
      "Ċ": 157,
      "č": 158,
      "Ę": 159,
      "Ġ": 160,
      "Ģ": 161,
      "ģ": 162,
      "Ĥ": 163,
      "ĥ": 164,
      "Ħ": 165,
      "ħ": 166,
      "Ĩ": 167,
      "ĩ": 168,
      "Ī": 169,
      "ī": 170,
      "Ĭ": 171,
      "ĭ": 172,
      "Į": 173,
      "į": 174,
      "İ": 175,
      "ı": 176,
      "Ĳ": 177,
      "ĳ": 178,
      "Ĵ": 179,
      "ĵ": 180,
      "Ķ": 181,
      "ķ": 182,
      "ĸ": 183,
      "Ĺ": 184,
      "ĺ": 185,
      "Ļ": 186,
      "ļ": 187,
      "Ľ": 188,
      "ľ": 189,
      "Ŀ": 190,
      "ŀ": 191,
      "Ł": 192,
      "ł": 193,
      "Ń": 194,
      "Ġt": 195,
      "Ġa": 196,
      "in": 197,
      "he": 198,
      "re": 199,
      "on": 200,
      "čĊ": 201,
      "Ġthe": 202,
      "Ġs": 203,
      "er": 204,
      "at": 205,
      "Ġc": 206,
      "or": 207,
      "nd": 208,
      "es": 209,
      "ou": 210,
      "it": 211,
      "Ġw": 212,
      "en": 213,
      "is": 214,
      "Ġp": 215,
      "Ġo": 216,
      "an": 217,
      "ing": 218,
      "Ġf": 219,
      "Ġm": 220,
      "Ġand": 221,
      "al": 222,
      "Ġb": 223,
      "Ġto": 224,
      "ĠĠ": 225,
      "Ġin": 226,
      "le": 227,
      "Ġd": 228,
      "Ġof": 229,
      "ar": 230,
      "ic": 231,
      "ion": 232,
      "ed": 233,
      "ro": 234,
      "Ġth": 235,
      "Ġe": 236,
      "as": 237,
      "ĠčĊ": 238,
      "Ġh": 239,
      "ct": 240,
      "om": 241,
      "Ġy": 242,
      "Ġl": 243,
      "Ġre": 244,
      "Ġ[": 245,
      "ent": 246,
      "us": 247,
      "Ġyou": 248,
      "ve": 249,
      "Ġn": 250,
      "et": 251,
      "Ġis": 252,
      "ĠT": 253,
      "il": 254,
      "ĠI": 255,
      "im": 256,
      "Ġg": 257,
      "ow": 258,
      "ce": 259,
      "Ġbe": 260,
      "ch": 261,
      "Ġfor": 262,
      "st": 263,
      "ly": 264,
      "ra": 265,
      "Ġthat": 266,
      "id": 267,
      "ation": 268,
      "ol": 269,
      "ot": 270,
      "ut": 271,
      "ig": 272,
      "Ġst": 273,
      "Ġon": 274,
      "if": 275,
      "ĠA": 276,
      "Ġpro": 277,
      "el": 278,
      "am": 279,
      "ĠĠĠĠ": 280,
      "Ġit": 281,
      "ul": 282,
      "ver": 283,
      "ith": 284,
      "Ġas": 285,
      "Ġcon": 286,
      "ay": 287,
      "Ġcan": 288,
      "od": 289,
      "ur": 290,
      "Ġare": 291,
      "Ġan": 292,
      "un": 293,
      "ĠS": 294,
      "Ġus": 295,
      "Ġwith": 296,
      "Ġor": 297,
      "ate": 298,
      "ĠC": 299,
      "ĠThe": 300,
      "ke": 301,
      "ir": 302,
      "se": 303,
      "ge": 304,
      "pe": 305,
      "ld": 306,
      "Ġex": 307,
      "Ġal": 308,
      "um": 309,
      "Ġcom": 310,
      "Ġwh": 311,
      "ter": 312,
      "her": 313,
      "ad": 314,
      "qu": 315,
      "ure": 316,
      "ess": 317,
      "ers": 318,
      "Ġde": 319,
      "Ġyour": 320,
      "ab": 321,
      "ist": 322,
      "Ġv": 323,
      "ri": 324,
      "OS": 325,
      "US": 326,
      "ĠH": 327,
      "ant": 328,
      "ER": 329,
      "SS": 330,
      "ere": 331,
      "AN": 332,
      "ST": 333,
      "ould": 334,
      "Ġhe": 335,
      "ore": 336,
      "ĠW": 337,
      "ANT": 338,
      "ASS": 339,
      "IST": 340,
      "USER": 341,
      "Ġsu": 342,
      "EOS": 343,
      "ASSIST": 344,
      "ASSISTANT": 345,
      "Ġha": 346,
      "ity": 347,
      "em": 348,
      "ĠĠĠ": 349,
      "ĠP": 350,
      "pl": 351,
      "op": 352,
      "'s": 353,
      "est": 354,
      "Ġ-": 355,
      "Ġne": 356,
      "pt": 357,
      "out": 358,
      "ment": 359,
      "ort": 360,
      "ain": 361,
      "igh": 362,
      "ac": 363,
      "ive": 364,
      "Ġim": 365,
      "ect": 366,
      "Ġ1": 367,
      "ies": 368,
      "ĠM": 369,
      "th": 370,
      "Ġch": 371,
      "Ġ\"": 372,
      "ill": 373,
      "oc": 374,
      "os": 375,
      "Ġr": 376,
      "nt": 377,
      "Ġle": 378,
      "ple": 379,
      "Ġse": 380,
      "Ġ(": 381,
      "ions": 382,
      "Ġby": 383,
      "ĠB": 384,
      "iz": 385,
      "ome": 386,
      "ĠD": 387,
      "Ġhave": 388,
      "ial": 389,
      "Ġme": 390,
      "ĠF": 391,
      "ical": 392,
      "pp": 393,
      "ight": 394,
      "age": 395,
      "rom": 396,
      "Ġen": 397,
      "act": 398,
      "ine": 399,
      "our": 400,
      "iv": 401,
      "Ġsh": 402,
      "ĠTh": 403,
      "Ġma": 404,
      "ĠE": 405,
      "ide": 406,
      "Ġnot": 407,
      "Ġpl": 408,
      "res": 409,
      "ud": 410,
      "Ġwor": 411,
      "per": 412,
      "Ġint": 413,
      "Ġfrom": 414,
      "ĠR": 415,
      "and": 416,
      "Ġu": 417,
      "ther": 418,
      "art": 419,
      "ĠG": 420,
      "og": 421,
      "ĠL": 422,
      "ust": 423,
      "Ġ2": 424,
      "Ġab": 425,
      "ich": 426,
      "Ġimp": 427,
      "all": 428,
      "Ġat": 429,
      "orm": 430,
      "Ġad": 431,
      "ile": 432,
      "Ġwe": 433,
      "Ġthis": 434,
      "Ġmore": 435,
      "ĠO": 436,
      "ell": 437,
      "Ġinc": 438,
      "ĠIn": 439,
      "ult": 440,
      "are": 441,
      "able": 442,
      "Ġcont": 443,
      "Ġcomp": 444,
      "ib": 445,
      "``": 446,
      "Ġres": 447,
      "ag": 448,
      "king": 449,
      "ations": 450,
      "ame": 451,
      "ard": 452,
      "Ġdo": 453,
      "ĠThis": 454,
      "rou": 455,
      "Ġwhich": 456,
      "Ġ=": 457,
      "cess": 458,
      "ff": 459,
      "Ġtheir": 460,
      "low": 461,
      "Ġother": 462,
      "ue": 463,
      "ction": 464,
      "vel": 465,
      "Ġk": 466,
      "ind": 467,
      "Ġuse": 468,
      "ire": 469,
      "ks": 470,
      "ance": 471,
      "form": 472,
      "--": 473,
      "ĠN": 474,
      "Ġsome": 475,
      "so": 476,
      "ry": 477,
      "ang": 478,
      "Ġwhe": 479,
      "du": 480,
      "Ġspe": 481,
      "ep": 482,
      "Ġte": 483,
      "ase": 484,
      "ike": 485,
      "ans": 486,
      "Ġun": 487,
      "ie": 488,
      "Ġsuch": 489,
      "ost": 490,
      "Ġwas": 491,
      "ĠIt": 492,
      "iff": 493,
      "Ġwill": 494,
      "gh": 495,
      "ime": 496,
      "Ġsc": 497,
      "Ġcre": 498,
      "ach": 499,
      "Ġ3": 500,
      "Ġhel": 501,
      "ence": 502,
      "Ġhas": 503,
      "Ġsy": 504,
      "ĠWh": 505,
      "ign": 506,
      "Ġmod": 507,
      "ĠY": 508,
      "Ġhelp": 509,
      "Ġqu": 510,
      "Ġdiff": 511,
      "ated": 512,
      "ous": 513,
      "Ġif": 514,
      "Ġbut": 515,
      "oo": 516,
      "Ġcl": 517,
      "Ġfe": 518,
      "ite": 519,
      "ice": 520,
      "Ġwould": 521,
      "ast": 522,
      "ces": 523,
      "Ġac": 524,
      "Ġdat": 525,
      "Ġman": 526,
      "Ġj": 527,
      "ory": 528,
      "Ġlike": 529,
      "Ġthey": 530,
      "Ġgo": 531,
      "ific": 532,
      "Ġtra": 533,
      "Ġalso": 534,
      "ary": 535,
      "ack": 536,
      "ass": 537,
      "Ġso": 538,
      "ap": 539,
      "ong": 540,
      "ace": 541,
      "ĠĠĠĠĠĠĠĠ": 542,
      "ition": 543,
      "Ġmay": 544,
      "ual": 545,
      "lud": 546,
      "ram": 547,
      "Ġcomm": 548,
      "ip": 549,
      "Ġany": 550,
      "xt": 551,
      "Ġcons": 552,
      "Ġneed": 553,
      "av": 554,
      "int": 555,
      "ĠU": 556,
      "Ġprov": 557,
      "stem": 558,
      "now": 559,
      "Ġar": 560,
      "Ġabout": 561,
      "etw": 562,
      "ject": 563,
      "Ġexam": 564,
      "nder": 565,
      "Ġhow": 566,
      "Ġused": 567,
      "Ġout": 568,
      "Ġinclud": 569,
      "ru": 570,
      "Ġev": 571,
      "ors": 572,
      "Ġup": 573,
      "ient": 574,
      "Ġro": 575,
      "Ġthem": 576,
      "Ġper": 577,
      "00": 578,
      "Ġdata": 579,
      "ode": 580,
      "Ġimport": 581,
      "Ġdes": 582,
      "ĠHow": 583,
      "Ġcould": 584,
      "ber": 585,
      "Ġspec": 586,
      "Ġpre": 587,
      "one": 588,
      "Ġits": 589,
      "ens": 590,
      "ress": 591,
      "Ġone": 592,
      "Ġdiffere": 593,
      "Ġfun": 594,
      "Ġmy": 595,
      "Ġtime": 596,
      "Ġsystem": 597,
      "Ġall": 598,
      "Ġdis": 599,
      "end": 600,
      "Ġta": 601,
      "Ġusing": 602,
      "Ġthere": 603,
      "ics": 604,
      "ĠJ": 605,
      "Ġknow": 606,
      "arn": 607,
      "Ġover": 608,
      "ari": 609,
      "Ġtr": 610,
      "Ġmake": 611,
      "ener": 612,
      "ating": 613,
      "ĠYou": 614,
      "Ġinto": 615,
      "ail": 616,
      "Ġ4": 617,
      "ĠWhat": 618,
      "con": 619,
      "ature": 620,
      "Ġ|": 621,
      "Ġsp": 622,
      "Ġnew": 623,
      "ater": 624,
      "Ġke": 625,
      "ount": 626,
      "ful": 627,
      "Ġcol": 628,
      "ĠĠĠĠĠĠĠ": 629,
      "velop": 630,
      "Ġadd": 631,
      "put": 632,
      "Ġthese": 633,
      "```": 634,
      "Ġinter": 635,
      "led": 636,
      "ub": 637,
      "Ġser": 638,
      "ĠSt": 639,
      "Ġwhat": 640,
      "Ġ5": 641,
      "ft": 642,
      "Ġsim": 643,
      "ons": 644,
      "Ġ*": 645,
      "ord": 646,
      "erm": 647,
      "ize": 648,
      "ĠIf": 649,
      "ally": 650,
      "ible": 651,
      "Ġmodel": 652,
      "ree": 653,
      "Ġem": 654,
      "Ġshould": 655,
      "Ġrec": 656,
      "Ġunder": 657,
      "Ġway": 658,
      "ular": 659,
      "Ġ```": 660,
      "Ġval": 661,
      "les": 662,
      "ility": 663,
      "Ġeff": 664,
      "Ġty": 665,
      "Ġapp": 666,
      "Ġap": 667,
      "Ġph": 668,
      "Ġpr": 669,
      "ild": 670,
      "ings": 671,
      "ck": 672,
      "ange": 673,
      "eth": 674,
      "Ġnum": 675,
      "Ġprog": 676,
      "ents": 677,
      "lect": 678,
      "Ġcode": 679,
      "ased": 680,
      "ll": 681,
      "Ġexample": 682,
      "âĢ": 683,
      "Ġind": 684,
      "Ġpart": 685,
      "Ġwork": 686,
      "Ġam": 687,
      "Ġeach": 688,
      "Ġrequ": 689,
      "angu": 690,
      "aus": 691,
      "Ġgener": 692,
      "Ġpos": 693,
      "very": 694,
      "Ġrel": 695,
      "Ġdifferent": 696,
      "Ġob": 697,
      "Ġdevelop": 698,
      "ĠHere": 699,
      "ments": 700,
      "Ġset": 701,
      "Ġwho": 702,
      "Ġlearn": 703,
      "Ġ#": 704,
      "ound": 705,
      "Ġhis": 706,
      "olog": 707,
      "'t": 708,
      "vers": 709,
      "Ġwhen": 710,
      "ove": 711,
      "rough": 712,
      "Ġstr": 713,
      "Ġlangu": 714,
      "rib": 715,
      "Ġpo": 716,
      "ates": 717,
      "Ġfunction": 718,
      "ph": 719,
      "pen": 720,
      "Ġpe": 721,
      "een": 722,
      "Ġprocess": 723,
      "Ġbu": 724,
      "urn": 725,
      "ose": 726,
      "ities": 727,
      "rit": 728,
      "Ġfol": 729,
      "row": 730,
      "Ġvari": 731,
      "Ġthan": 732,
      "etween": 733,
      "ower": 734,
      "Ġhum": 735,
      "ick": 736,
      "Ġmany": 737,
      "ise": 738,
      "Ġbetween": 739,
      "get": 740,
      "----": 741,
      "Ġimportant": 742,
      "ages": 743,
      "Ġform": 744,
      "Ġtw": 745,
      "ys": 746,
      "Ġsm": 747,
      "Ġinst": 748,
      "ĠV": 749,
      "Ġwant": 750,
      "Ġexpl": 751,
      "Ġplay": 752,
      "ov": 753,
      "Ġra": 754,
      "ative": 755,
      "Ġact": 756,
      "Ġget": 757,
      "ob": 758,
      "ood": 759,
      "erg": 760,
      "Ġinv": 761,
      "ne": 762,
      "ish": 763,
      "tain": 764,
      "Ġdet": 765,
      "tern": 766,
      "round": 767,
      "its": 768,
      "Ġbec": 769,
      "ook": 770,
      "ath": 771,
      "Ġoff": 772,
      "ĠAs": 773,
      "Ġprogram": 774,
      "Ġthrough": 775,
      "oth": 776,
      "pend": 777,
      "Ġpers": 778,
      "ever": 779,
      "ript": 780,
      "te": 781,
      "ars": 782,
      "gg": 783,
      "chn": 784,
      "ict": 785,
      "Ġprodu": 786,
      "ough": 787,
      "ia": 788,
      "Ġexper": 789,
      "Ġwhere": 790,
      "Ġmost": 791,
      "elf": 792,
      "ential": 793,
      "Ġprovide": 794,
      "als": 795,
      "ark": 796,
      "stand": 797,
      "Ġfollow": 798,
      "ract": 799,
      "irst": 800,
      "Ġworld": 801,
      "Ġcreate": 802,
      "Ġcomple": 803,
      "ĠCan": 804,
      "Ġcal": 805,
      "ĠCh": 806,
      "Ġtwo": 807,
      "Ġno": 808,
      "plic": 809,
      "ak": 810,
      "Ġchar": 811,
      "ĠK": 812,
      "Ġass": 813,
      "Ġlist": 814,
      "Ġtechn": 815,
      "cur": 816,
      "yth": 817,
      "old": 818,
      "ting": 819,
      "hes": 820,
      "Ġwhile": 821,
      "ble": 822,
      "Ġlanguage": 823,
      "ĠAI": 824,
      "Ġ`": 825,
      "Ġstart": 826,
      "Ġreg": 827,
      "Ġatt": 828,
      "Ġcur": 829,
      "ten": 830,
      "Ġthen": 831,
      "Ġtrans": 832,
      "Ġfl": 833,
      "ience": 834,
      "Ġinform": 835,
      "wn": 836,
      "Ġbeen": 837,
      "ĠFor": 838,
      "Ġbl": 839,
      "ople": 840,
      "cy": 841,
      "Ġdef": 842,
      "own": 843,
      "Ġrep": 844,
      "Ġ{": 845,
      "Ġunderstand": 846,
      "ious": 847,
      "ware": 848,
      "Ġwell": 849,
      "ced": 850,
      "Ġconsid": 851,
      "Ġdec": 852,
      "ices": 853,
      "Ġspecific": 854,
      "Ġsign": 855,
      "Ġmat": 856,
      "Ġfind": 857,
      "ues": 858,
      "()": 859,
      "Ġlar": 860,
      "ĠHowever": 861,
      "arch": 862,
      "Ġopt": 863,
      "ause": 864,
      "ĠTo": 865,
      "reat": 866,
      "Ġ6": 867,
      "Ġhigh": 868,
      "lease": 869,
      "ython": 870,
      "Ġsol": 871,
      "cept": 872,
      "Ġcomput": 873,
      "Ġkey": 874,
      "Ġpeople": 875,
      "ution": 876,
      "Ġallow": 877,
      "ruct": 878,
      "ps": 879,
      "Ġadv": 880,
      "Ġincluding": 881,
      "ef": 882,
      "ms": 883,
      "ural": 884,
      "Ġresp": 885,
      "Ġsa": 886,
      "pport": 887,
      "iqu": 888,
      "Ġinformation": 889,
      "Ġrun": 890,
      "Ġdist": 891,
      "uring": 892,
      "Ġjust": 893,
      "Ġperson": 894,
      "ife": 895,
      "pect": 896,
      "ake": 897,
      "ds": 898,
      "hen": 899,
      "Ġfirst": 900,
      "Ġsk": 901,
      "ized": 902,
      "Ġdoes": 903,
      "Ġche": 904,
      "Ġpower": 905,
      "rite": 906,
      "Ġgra": 907,
      "Ġinf": 908,
      "ĠAd": 909,
      "Ġrem": 910,
      "Ġdesign": 911,
      "Ġret": 912,
      "ically": 913,
      "ality": 914,
      "Ġag": 915,
      "Ġco": 916,
      "Ġfile": 917,
      "ify": 918,
      "Ġwere": 919,
      "Ġref": 920,
      "Ġtrain": 921,
      "ock": 922,
      "Ġcharact": 923,
      "Ġgame": 924,
      "Ġhuman": 925,
      "eng": 926,
      "ĠRe": 927,
      "Ġgood": 928,
      "Ġnumber": 929,
      "Ġobject": 930,
      "Ġprovid": 931,
      "Ġfact": 932,
      "ork": 933,
      "Ġonly": 934,
      "oy": 935,
      "ays": 936,
      "Ġperform": 937,
      "Ġposs": 938,
      "Ġ'": 939,
      "ving": 940,
      "ples": 941,
      "red": 942,
      "Ġimpro": 943,
      "Ġown": 944,
      "read": 945,
      "ved": 946,
      "Ġmin": 947,
      "ĠThere": 948,
      "Ġresult": 949,
      "Ġappro": 950,
      "Ġdepend": 951,
      "ethod": 952,
      "Ġhand": 953,
      "rent": 954,
      "Ġav": 955,
      "Ġtake": 956,
      "Ġpol": 957,
      "Ġmain": 958,
      "iew": 959,
      "ng": 960,
      "com": 961,
      "nce": 962,
      "ink": 963,
      "ered": 964,
      "dition": 965,
      "ness": 966,
      "Ġbuild": 967,
      "Ġquest": 968,
      "Ġsub": 969,
      "Ġrequire": 970,
      "Ġtyp": 971,
      "ergy": 972,
      "Ġlead": 973,
      "Ġclass": 974,
      "Ġeffect": 975,
      "Ġ<": 976,
      "fore": 977,
      "Ġ$": 978,
      "Ġplan": 979,
      "ĠHe": 980,
      "ern": 981,
      "der": 982,
      "Ġeas": 983,
      "cl": 984,
      "Ġcor": 985,
      "Ġmethod": 986,
      "Ġweb": 987,
      "Ġbest": 988,
      "ource": 989,
      "Ġpot": 990,
      "\",": 991,
      "Ġlong": 992,
      "other": 993,
      "irect": 994,
      "Ġlight": 995,
      "ines": 996,
      "Ġour": 997,
      "ization": 998,
      "ety": 999,
      "ron": 1000,
      "Ġloc": 1001,
      "//": 1002,
      "ied": 1003,
      "Ġopen": 1004,
      "Ġpoint": 1005,
      "gor": 1006,
      "Ġsoc": 1007,
      "Ġbeing": 1008,
      "Ġfil": 1009,
      "Ġ}": 1010,
      "iron": 1011,
      "Ġfi": 1012,
      "ade": 1013,
      "Ġinclude": 1014,
      "ism": 1015,
      "Ġback": 1016,
      "Ġboth": 1017,
      "ĠPro": 1018,
      "ien": 1019,
      "Ġenergy": 1020,
      "ivid": 1021,
      "ves": 1022,
      "Ġstep": 1023,
      "Ġsee": 1024,
      "Ġcommun": 1025,
      "Ġaut": 1026,
      "Ġcomplex": 1027,
      "Ġapplic": 1028,
      "ology": 1029,
      "Ġvalue": 1030,
      "Ġexp": 1031,
      "Ġher": 1032,
      "Ġlearning": 1033,
      "Ġgu": 1034,
      "ian": 1035,
      "Ġincre": 1036,
      "Ġins": 1037,
      "Ġbased": 1038,
      "Ġtool": 1039,
      "Ġtext": 1040,
      "Ġinput": 1041,
      ");": 1042,
      "Ġpop": 1043,
      "Ġcontro": 1044,
      "Ġide": 1045,
      "cript": 1046,
      "Ġmed": 1047,
      "ĠAn": 1048,
      "gan": 1049,
      "Ġ+": 1050,
      "Ġtry": 1051,
      "Ġlife": 1052,
      "alth": 1053,
      "ody": 1054,
      "atures": 1055,
      "),": 1056,
      "ning": 1057,
      "ric": 1058,
      "Ġmem": 1059,
      "Ġsmall": 1060,
      "cial": 1061,
      "Ġevery": 1062,
      "gorith": 1063,
      "Ġstud": 1064,
      "Ġconf": 1065,
      "Ġ0": 1066,
      "Ġreal": 1067,
      "Ġye": 1068,
      "ĠDe": 1069,
      "ures": 1070,
      "Ġmult": 1071,
      "line": 1072,
      "ited": 1073,
      "ĠThese": 1074,
      "Ġuser": 1075,
      "kes": 1076,
      "uch": 1077,
      "ources": 1078,
      "Ġpossible": 1079,
      "ĠThey": 1080,
      ").": 1081,
      "ts": 1082,
      "viron": 1083,
      "Ġdown": 1084,
      "Ġreturn": 1085,
      "imate": 1086,
      "Ġsupport": 1087,
      "Ġlarge": 1088,
      "Ġ.": 1089,
      "Ġ7": 1090,
      "hed": 1091,
      "Ġeven": 1092,
      "Ġbeh": 1093,
      "hip": 1094,
      "Ġsur": 1095,
      "fter": 1096,
      "Ġproper": 1097,
      "cul": 1098,
      "Ġve": 1099,
      "Ġend": 1100,
      "Ġacc": 1101,
      "Ġalgorith": 1102,
      "Ġredu": 1103,
      "Ġlet": 1104,
      "Ġtype": 1105,
      "ertain": 1106,
      "Ġpat": 1107,
      "etter": 1108,
      "nect": 1109,
      "ty": 1110,
      "Ġoften": 1111,
      "Ġhad": 1112,
      "Ġterm": 1113,
      "ability": 1114,
      "ming": 1115,
      "omm": 1116,
      "ward": 1117,
      "ĠAl": 1118,
      "vent": 1119,
      "Ġent": 1120,
      "Ġnetw": 1121,
      "rain": 1122,
      "Ġla": 1123,
      "Ġconsider": 1124,
      "mat": 1125,
      "Ġproble": 1126,
      "Ġext": 1127,
      "Ġcurrent": 1128,
      "Ġconst": 1129,
      "any": 1130,
      "ives": 1131,
      "Ġgive": 1132,
      "eg": 1133,
      "Ġpotential": 1134,
      "Ġmight": 1135,
      "ros": 1136,
      "ribut": 1137,
      "ax": 1138,
      "ases": 1139,
      "ily": 1140,
      "Ġknown": 1141,
      "Ġ20": 1142,
      "Ġproject": 1143,
      "resent": 1144,
      "ividual": 1145,
      "Ġoper": 1146,
      "ional": 1147,
      "Ġdirect": 1148,
      "ident": 1149,
      "Ġwater": 1150,
      "Ġenviron": 1151,
      "Ġdisc": 1152,
      "ĠEx": 1153,
      "Ġimprove": 1154,
      "ets": 1155,
      "ational": 1156,
      "Ġfew": 1157,
      "ex": 1158,
      "oid": 1159,
      "Ġprot": 1160,
      "Ġfollowing": 1161,
      "ĠUn": 1162,
      "ather": 1163,
      "Ġpartic": 1164,
      "Ġtas": 1165,
      "Ġcar": 1166,
      "Ġmus": 1167,
      "Ġread": 1168,
      "lic": 1169,
      "Ġindividual": 1170,
      "Ġaccess": 1171,
      "Ġdi": 1172,
      "ocus": 1173,
      "Ġinvol": 1174,
      "Ġbr": 1175,
      "Ġhard": 1176,
      "):": 1177,
      "ond": 1178,
      "Ġsystems": 1179,
      "Ġcontrol": 1180,
      "Ġname": 1181,
      "Ġvis": 1182,
      "Ġright": 1183,
      "Ġeng": 1184,
      "up": 1185,
      "Ġdon": 1186,
      "Ġelect": 1187,
      "Ġbetter": 1188,
      "Ġ10": 1189,
      "Ġens": 1190,
      "conom": 1191,
      "Ġaround": 1192,
      "riend": 1193,
      "Âł": 1194,
      "Ġequ": 1195,
      "lu": 1196,
      "Ġsame": 1197,
      "Ġart": 1198,
      "ĠâĢ": 1199,
      "iss": 1200,
      "ĠSure": 1201,
      "Ġfeel": 1202,
      "Ġwrit": 1203,
      "Ġbre": 1204,
      "Ġchang": 1205,
      "Ġprom": 1206,
      "oad": 1207,
      "Ġlim": 1208,
      "Ġbefore": 1209,
      "Ġmean": 1210,
      "'re": 1211,
      "Ġcharacter": 1212,
      "Ġ8": 1213,
      "erest": 1214,
      "Ġsoft": 1215,
      "Ġsum": 1216,
      "Ġfin": 1217,
      "Ġtop": 1218,
      "Ġday": 1219,
      "Ġshe": 1220,
      "Ġpar": 1221,
      "Ġhist": 1222,
      "Ġsever": 1223,
      "Ġbel": 1224,
      "Ġhealth": 1225,
      "Ġexplain": 1226,
      "Ġlevel": 1227,
      "Ġimpact": 1228,
      "Ġcommon": 1229,
      "ote": 1230,
      "Ġmuch": 1231,
      "Ġtest": 1232,
      "Ġsom": 1233,
      "io": 1234,
      "ĠSome": 1235,
      "Ġcommand": 1236,
      "Ġdevelopment": 1237,
      "Ġmulti": 1238,
      "ibr": 1239,
      "ually": 1240,
      "Ġproduct": 1241,
      "Ġstill": 1242,
      "ĠCon": 1243,
      "--------": 1244,
      "Ġmade": 1245,
      "Ġele": 1246,
      "ier": 1247,
      "Ġpopular": 1248,
      "ustom": 1249,
      "Ġenvironment": 1250,
      "Ġseveral": 1251,
      "inu": 1252,
      "Ġwithout": 1253,
      "Ġrange": 1254,
      "self": 1255,
      "Ġmaking": 1256,
      "mer": 1257,
      "Ġcle": 1258,
      "Ġpass": 1259,
      "Ġhere": 1260,
      "Ġstate": 1261,
      "plement": 1262,
      "Ġfiel": 1263,
      "Ġmon": 1264,
      "Ġtraining": 1265,
      "ĠĠĠĠĠĠĠĠĠĠĠ": 1266,
      "Ġel": 1267,
      "bo": 1268,
      "ner": 1269,
      "ames": 1270,
      "Ġsignific": 1271,
      "itive": 1272,
      "apt": 1273,
      "Ġmet": 1274,
      "ĠAnd": 1275,
      "Ġchall": 1276,
      "Ġsimple": 1277,
      "ique": 1278,
      "ext": 1279,
      "ix": 1280,
      "Ġsw": 1281,
      "ew": 1282,
      "Ġinterest": 1283,
      "ren": 1284,
      "Ġcent": 1285,
      "Ġfocus": 1286,
      "vices": 1287,
      "Ġpri": 1288,
      "Ġ19": 1289,
      "Ġkeep": 1290,
      "ĠPython": 1291,
      "'m": 1292,
      "imes": 1293,
      "ven": 1294,
      "Ġeffic": 1295,
      "Ġbo": 1296,
      "Ġconnect": 1297,
      "ows": 1298,
      "Ġless": 1299,
      "tt": 1300,
      "Ġsure": 1301,
      "ec": 1302,
      "ior": 1303,
      "Ġwrite": 1304,
      "Ġexamples": 1305,
      "ser": 1306,
      "arm": 1307,
      "ggest": 1308,
      "bers": 1309,
      "Ġtem": 1310,
      "Ġpract": 1311,
      "ĠWe": 1312,
      ".\"": 1313,
      "ument": 1314,
      "Ġeconom": 1315,
      "ĠIs": 1316,
      "ared": 1317,
      "sw": 1318,
      "Ġduring": 1319,
      "Ġbecause": 1320,
      "Ġed": 1321,
      "Ġgreat": 1322,
      "ÂłÂł": 1323,
      "Ġsoftware": 1324,
      "gin": 1325,
      "Ġpur": 1326,
      "iness": 1327,
      "ĠOpen": 1328,
      "ank": 1329,
      "ists": 1330,
      "cle": 1331,
      "ention": 1332,
      "Ġmark": 1333,
      "Ġstruct": 1334,
      "Ġvery": 1335,
      "err": 1336,
      "Ġlay": 1337,
      "Ġbelie": 1338,
      "Ġsuggest": 1339,
      "ways": 1340,
      "ale": 1341,
      "Ġiss": 1342,
      "Ġi": 1343,
      "Ġprint": 1344,
      "Ġbehav": 1345,
      "Ġafter": 1346,
      "Ġtoo": 1347,
      "Ġcount": 1348,
      "Ġphys": 1349,
      "Ġconc": 1350,
      "Ġcap": 1351,
      "Ġvers": 1352,
      "Ġcustom": 1353,
      "ave": 1354,
      "Ġgl": 1355,
      "Ġfound": 1356,
      "ilar": 1357,
      "Ġcult": 1358,
      "Ġfeatures": 1359,
      "air": 1360,
      "to": 1361,
      "aster": 1362,
      "Ġmess": 1363,
      "aterial": 1364,
      "Ġfactors": 1365,
      "cing": 1366,
      "Ġpub": 1367,
      "Ġrese": 1368,
      "ables": 1369,
      "Ġable": 1370,
      "**": 1371,
      "Ġair": 1372,
      "ash": 1373,
      "ething": 1374,
      "Ġskill": 1375,
      "Ġagain": 1376,
      "Ġchange": 1377,
      "âĢĻ": 1378,
      "Ġsignificant": 1379,
      "Ġplace": 1380,
      "ĠPlease": 1381,
      "Ġcomputer": 1382,
      "Ġensure": 1383,
      "Ġprof": 1384,
      "Ġgrow": 1385,
      "verse": 1386,
      "Ġwide": 1387,
      "Ġcontain": 1388,
      "ince": 1389,
      "icult": 1390,
      "20": 1391,
      "til": 1392,
      "ense": 1393,
      "Ġfree": 1394,
      "Ġthings": 1395,
      "Ġcalcul": 1396,
      "ger": 1397,
      "dit": 1398,
      "ted": 1399,
      "tle": 1400,
      "Ġlibr": 1401,
      "Ġdeterm": 1402,
      "Ġresources": 1403,
      "Ġthose": 1404,
      "Ġfriend": 1405,
      "ĠWhen": 1406,
      "Ġconcept": 1407,
      "yn": 1408,
      "Ġhapp": 1409,
      "Ġimplement": 1410,
      "Ġuses": 1411,
      "onse": 1412,
      "Ġstre": 1413,
      "Ġexperience": 1414,
      "Ġnetwork": 1415,
      "Ġscript": 1416,
      "Ġsomething": 1417,
      "less": 1418,
      "Ġaddition": 1419,
      "sc": 1420,
      "Ġrecomm": 1421,
      "Ġyears": 1422,
      "arth": 1423,
      "Ġmach": 1424,
      "Ġdifficult": 1425,
      "Ġansw": 1426,
      "iven": 1427,
      "Ġrecommend": 1428,
      "nces": 1429,
      "ilities": 1430,
      "ope": 1431,
      "oss": 1432,
      "Ġamount": 1433,
      "Ġline": 1434,
      "view": 1435,
      "Ġben": 1436,
      "Ġstory": 1437,
      "Ġanal": 1438,
      "ooking": 1439,
      "Ġsteps": 1440,
      "hemat": 1441,
      "ci": 1442,
      "reen": 1443,
      "Ġfood": 1444,
      "Ġperformance": 1445,
      "Ġothers": 1446,
      "rect": 1447,
      "Ġfam": 1448,
      "Ġmov": 1449,
      "Ġchalleng": 1450,
      "Ġx": 1451,
      "Ġdem": 1452,
      "Ġwebs": 1453,
      "Ġunderstanding": 1454,
      "Ġavail": 1455,
      "ead": 1456,
      "uture": 1457,
      "Ġquestions": 1458,
      "ross": 1459,
      "oice": 1460,
      "atch": 1461,
      "Ġmeans": 1462,
      "Ġmodels": 1463,
      "Ġoutput": 1464,
      "Ġspace": 1465,
      "ined": 1466,
      "chie": 1467,
      "str": 1468,
      "Ġneeds": 1469,
      "Ġ**": 1470,
      "Ġsl": 1471,
      "ĠOne": 1472,
      "Ġsocial": 1473,
      "val": 1474,
      "vice": 1475,
      "ĠQ": 1476,
      "Ġorder": 1477,
      "Ġenc": 1478,
      "Ġmaterial": 1479,
      "'ll": 1480,
      "ateg": 1481,
      "Ġpattern": 1482,
      "here": 1483,
      "Ġorgan": 1484,
      "Ġprogramming": 1485,
      "(\"": 1486,
      "Ġcase": 1487,
      "oh": 1488,
      "Ġcost": 1489,
      "ĠUse": 1490,
      "ination": 1491,
      "Ġmust": 1492,
      "Ġanother": 1493,
      "Ġgeneral": 1494,
      "ories": 1495,
      "Ġmove": 1496,
      "Ġthough": 1497,
      "curity": 1498,
      "Ġbody": 1499,
      "Ġcalled": 1500,
      "yle": 1501,
      "ering": 1502,
      "Ġworks": 1503,
      "Ġbi": 1504,
      "ified": 1505,
      "Ġalgorithm": 1506,
      "aking": 1507,
      "Ġ/": 1508,
      "ata": 1509,
      "Ġcertain": 1510,
      "Ġachie": 1511,
      "Ġalways": 1512,
      "po": 1513,
      "Ġserver": 1514,
      "Ġsimilar": 1515,
      "Ġtools": 1516,
      "Ġcomb": 1517,
      "ĠDo": 1518,
      "chan": 1519,
      "Ġvarious": 1520,
      "crib": 1521,
      "pos": 1522,
      "ape": 1523,
      "ray": 1524,
      "istant": 1525,
      "Ġpersonal": 1526,
      "..": 1527,
      "://": 1528,
      "atform": 1529,
      "Ġarg": 1530,
      "000": 1531,
      "Ġmultiple": 1532,
      "Ġfuture": 1533,
      "Ġsaf": 1534,
      "Ġident": 1535,
      "Ġstat": 1536,
      "ull": 1537,
      "Ġaff": 1538,
      "Ġspeed": 1539,
      "Ġways": 1540,
      "Ġprotect": 1541,
      "ken": 1542,
      "ator": 1543,
      "Ġhim": 1544,
      "ĠSo": 1545,
      "ivity": 1546,
      "Ġtypes": 1547,
      "Ġapplications": 1548,
      "usion": 1549,
      "pro": 1550,
      "Ġrele": 1551,
      "Ġimage": 1552,
      "Ġself": 1553,
      "ries": 1554,
      "Ġuntil": 1555,
      "ĠWhile": 1556,
      "Ġdri": 1557,
      "Ġexist": 1558,
      "ins": 1559,
      "Ġmathemat": 1560,
      "day": 1561,
      "Ġmeas": 1562,
      "Ġvalues": 1563,
      "Ġsource": 1564,
      "Ġfield": 1565,
      "Ġcompany": 1566,
      "Ġsit": 1567,
      "Ġbas": 1568,
      "raph": 1569,
      "ccess": 1570,
      "ason": 1571,
      "Ġchanges": 1572,
      "ital": 1573,
      "Ġest": 1574,
      "Ġallows": 1575,
      "inal": 1576,
      "ĠAr": 1577,
      "Ġresponse": 1578,
      "Ġcr": 1579,
      "Ġavailable": 1580,
      "Ġusers": 1581,
      "Ġunique": 1582,
      "Ġrespons": 1583,
      "lish": 1584,
      "Ġplease": 1585,
      "Ġinflu": 1586,
      "',": 1587,
      "ĠEn": 1588,
      "Ġquant": 1589,
      "Ġbehavior": 1590,
      "Ġbenef": 1591,
      "ters": 1592,
      "Ġteam": 1593,
      "Ġmind": 1594,
      "Ġlook": 1595,
      "ĠSh": 1596,
      "Ġmag": 1597,
      "Ġeffective": 1598,
      "ication": 1599,
      "ĠĠĠĠĠĠĠĠĠĠĠĠĠĠĠĠ": 1600,
      "els": 1601,
      "Ġsym": 1602,
      "Ġprevent": 1603,
      "olution": 1604,
      "Ġanim": 1605,
      "thing": 1606,
      "Ġlikely": 1607,
      "Ġoptim": 1608,
      "ttps": 1609,
      "Ġprovides": 1610,
      "de": 1611,
      "oph": 1612,
      "ĠBy": 1613,
      "Ġshow": 1614,
      "Ġplatform": 1615,
      "ogn": 1616,
      "oose": 1617,
      "Ġz": 1618,
      "ellig": 1619,
      "orld": 1620,
      "Ġmechan": 1621,
      "cond": 1622,
      "Ġsound": 1623,
      "Ġsize": 1624,
      "Ġdra": 1625,
      "Ġrepresent": 1626,
      "ength": 1627,
      "Ġskills": 1628,
      "Ġuni": 1629,
      "ledge": 1630,
      "Ġresearch": 1631,
      "ches": 1632,
      "Ġtell": 1633,
      "Ġgrou": 1634,
      "ĠĠĠĠĠ": 1635,
      "inux": 1636,
      "vant": 1637,
      "atural": 1638,
      "Ġcontin": 1639,
      "ails": 1640,
      "Ġstrong": 1641,
      "ĠĠĠĠĠĠ": 1642,
      "ĠSe": 1643,
      "Ġtechnology": 1644,
      "Ġeasy": 1645,
      "Ġes": 1646,
      "rodu": 1647,
      "Ġreduce": 1648,
      "way": 1649,
      "ditionally": 1650,
      "Ġcare": 1651,
      "ision": 1652,
      "Ġpublic": 1653,
      "port": 1654,
      "ral": 1655,
      "Ġstore": 1656,
      "Ġscient": 1657,
      "Ġinstall": 1658,
      "ium": 1659,
      "par": 1660,
      "Ġturn": 1661,
      "Ġstand": 1662,
      "ĠLe": 1663,
      "Ġinteract": 1664,
      "ling": 1665,
      "ants": 1666,
      "Ġnecess": 1667,
      "Ġris": 1668,
      "Ġthink": 1669,
      "ides": 1670,
      "ume": 1671,
      "oop": 1672,
      "ilos": 1673,
      "Ġvide": 1674,
      "Ġcontribut": 1675,
      "Ġbecome": 1676,
      "Ġ_": 1677,
      "Ġlit": 1678,
      "aces": 1679,
      "Ġshort": 1680,
      "ĠGo": 1681,
      "Ġability": 1682,
      "Ġcause": 1683,
      "ĠBut": 1684,
      "ĠOver": 1685,
      "Ġmachine": 1686,
      "Ġerr": 1687,
      "usiness": 1688,
      "Ġwhy": 1689,
      "Ġtasks": 1690,
      "Ġanswer": 1691,
      "face": 1692,
      "Ġhy": 1693,
      "Ġthree": 1694,
      "ems": 1695,
      "ava": 1696,
      "Ġstrateg": 1697,
      "Ġcorrect": 1698,
      "Ġparticular": 1699,
      "ption": 1700,
      "Ġrequest": 1701,
      "pre": 1702,
      "Ġdr": 1703,
      "ember": 1704,
      "Ġwords": 1705,
      "Ġconsidered": 1706,
      "\".": 1707,
      "The": 1708,
      "uc": 1709,
      "Ġ9": 1710,
      "Ġjob": 1711,
      "aut": 1712,
      "ired": 1713,
      "Ġdid": 1714,
      "ĠCre": 1715,
      "Ġcreating": 1716,
      "Ġlaw": 1717,
      "Ġproblem": 1718,
      "Ġtheory": 1719,
      "Ġnext": 1720,
      "Ġavoid": 1721,
      "PI": 1722,
      "ency": 1723,
      "ĠPl": 1724,
      "Ġdue": 1725,
      "board": 1726,
      "ationship": 1727,
      "und": 1728,
      "Ġcell": 1729,
      "Ġapproach": 1730,
      "ression": 1731,
      "Ġpolit": 1732,
      "Ġcaus": 1733,
      "Ġquestion": 1734,
      "Ġincrease": 1735,
      "anced": 1736,
      "ulation": 1737,
      "Ġcompon": 1738,
      "Ġcolor": 1739,
      "Ġlocal": 1740,
      "Ġterms": 1741,
      "Ġbuilding": 1742,
      "Ġwriting": 1743,
      "place": 1744,
      "Ġoptions": 1745,
      "Ġnow": 1746,
      "Ġwithin": 1747,
      "ĠWith": 1748,
      "Ġpriv": 1749,
      "ires": 1750,
      "Ġinteg": 1751,
      "Ġinvest": 1752,
      "Ġhistory": 1753,
      "Ġ//": 1754,
      "Ġsearch": 1755,
      "Ġwebsite": 1756,
      "for": 1757,
      "ert": 1758,
      "Ġdig": 1759,
      "Ġarea": 1760,
      "Ġsecurity": 1761,
      "Ġcontent": 1762,
      "Ġknowledge": 1763,
      "Ġoc": 1764,
      "Ġdeep": 1765,
      "Ġdescrib": 1766,
      "Ġrelationship": 1767,
      "ĠAss": 1768,
      "ĠAdditionally": 1769,
      "Ġidea": 1770,
      "Ġess": 1771,
      "Ġpress": 1772,
      "Ġmusic": 1773,
      "Ġmarket": 1774,
      "leep": 1775,
      "ploy": 1776,
      "Ġmemory": 1777,
      "az": 1778,
      "Ġsent": 1779,
      "Ġlog": 1780,
      "erc": 1781,
      "ese": 1782,
      "Ġtemper": 1783,
      "Ġ\\": 1784,
      "Ġweight": 1785,
      "Ġcontext": 1786,
      "Ġmeaning": 1787,
      "Ġissues": 1788,
      "Ġversion": 1789,
      "let": 1790,
      "acy": 1791,
      "Ġdel": 1792,
      "urther": 1793,
      "Ġsuccess": 1794,
      "ĠLinux": 1795,
      "Ġask": 1796,
      "Ġlow": 1797,
      "Ġdesigned": 1798,
      "ances": 1799,
      "ĠIm": 1800,
      "vert": 1801,
      "Ġspecial": 1802,
      "10": 1803,
      "uss": 1804,
      "orth": 1805,
      "Ġefficient": 1806,
      "ĠYes": 1807,
      "Ġsumm": 1808,
      "Ġstructure": 1809,
      "Ġnumbers": 1810,
      "Ġmanage": 1811,
      "ats": 1812,
      "iving": 1813,
      "sh": 1814,
      "vern": 1815,
      "Ġmaintain": 1816,
      "##": 1817,
      "Ġwind": 1818,
      "arly": 1819,
      "ours": 1820,
      "Ġpoints": 1821,
      "uro": 1822,
      "raft": 1823,
      "Ġorig": 1824,
      "Ġintern": 1825,
      "Ġobjects": 1826,
      "Ġaud": 1827,
      "Ġsqu": 1828,
      "Ġfre": 1829,
      "Ġmethods": 1830,
      "Ġsoci": 1831,
      "Ġsing": 1832,
      "Ġnatural": 1833,
      "ek": 1834,
      "idd": 1835,
      "Ġquick": 1836,
      "Ġpref": 1837,
      "Ġstring": 1838,
      "Ġdoc": 1839,
      "Ġnorm": 1840,
      "ãģ": 1841,
      "Ġtri": 1842,
      "Ġgen": 1843,
      "amet": 1844,
      "Ġintellig": 1845,
      "Ġgenerate": 1846,
      "not": 1847,
      "por": 1848,
      "Ġonline": 1849,
      "Ġmakes": 1850,
      "Ġapplication": 1851,
      "dict": 1852,
      "Ġtoget": 1853,
      "Ġhead": 1854,
      "Ġengine": 1855,
      "Ġtogether": 1856,
      "pri": 1857,
      "Ġcir": 1858,
      "iting": 1859,
      "alk": 1860,
      "Ġnote": 1861,
      "ream": 1862,
      "play": 1863,
      "Ġnon": 1864,
      "Ġphilos": 1865,
      "Ġproblems": 1866,
      "Ġvol": 1867,
      "ips": 1868,
      "Ġupd": 1869,
      "hor": 1870,
      "Ġbook": 1871,
      "ibility": 1872,
      "ouse": 1873,
      "Ġpa": 1874,
      "icro": 1875,
      "Ġgiven": 1876,
      "Ġport": 1877,
      "ĠSp": 1878,
      "Ġenough": 1879,
      "ysis": 1880,
      "Ġcharacters": 1881,
      "Ġmessage": 1882,
      "name": 1883,
      "ĠSc": 1884,
      "Ġfiles": 1885,
      "over": 1886,
      "aries": 1887,
      "utes": 1888,
      "Ġsun": 1889,
      "Ġbusiness": 1890,
      "Ġstudy": 1891,
      "meric": 1892,
      "Ġprofess": 1893,
      "Ġnecessary": 1894,
      "joy": 1895,
      "Ġsay": 1896,
      "ery": 1897,
      "Ġcrit": 1898,
      "Ġbro": 1899,
      "ots": 1900,
      "Ġstyle": 1901,
      "oin": 1902,
      "uck": 1903,
      "Ġold": 1904,
      "arget": 1905,
      "Ġhig": 1906,
      "cho": 1907,
      "ĠCons": 1908,
      "Ġindust": 1909,
      "Ġcheck": 1910,
      "\")": 1911,
      "js": 1912,
      "the": 1913,
      "idence": 1914,
      "Ġworking": 1915,
      "ĠâĢ¢": 1916,
      "ox": 1917,
      "istic": 1918,
      "\":": 1919,
      "ring": 1920,
      "ĠMake": 1921,
      "Ġmodern": 1922,
      "ooks": 1923,
      "Ġelse": 1924,
      "orks": 1925,
      "Ġwar": 1926,
      "ctions": 1927,
      "Ġyourself": 1928,
      "Ġleg": 1929,
      "ditions": 1930,
      "Ġaffect": 1931,
      "vious": 1932,
      "Ġtimes": 1933,
      "ĠCould": 1934,
      "ffic": 1935,
      "Ġ>": 1936,
      "Ġcy": 1937,
      "oun": 1938,
      "ences": 1939,
      "Ġpast": 1940,
      "Ġappe": 1941,
      "ĠAdd": 1942,
      "Ġdepending": 1943,
      "ditional": 1944,
      "of": 1945,
      "Ġmil": 1946,
      "Ġrole": 1947,
      "py": 1948,
      "sy": 1949,
      "ton": 1950,
      "ĠX": 1951,
      "Ġhope": 1952,
      "Ġtakes": 1953,
      "pose": 1954,
      "Ġtre": 1955,
      "Ġmot": 1956,
      "izing": 1957,
      "Ġquality": 1958,
      "ĠCreate": 1959,
      "Ġland": 1960,
      "Ġbegin": 1961,
      "ĠCl": 1962,
      "ĠJava": 1963,
      "Ġeconomic": 1964,
      "ute": 1965,
      "Ġlibrary": 1966,
      "Ġegg": 1967,
      "oms": 1968,
      "ĠMy": 1969,
      "Ġgr": 1970,
      "ird": 1971,
      "Ġview": 1972,
      "Ġhaving": 1973,
      "Ġremain": 1974,
      "ites": 1975,
      "Ġpack": 1976,
      "omet": 1977,
      "Ġsecond": 1978,
      "ube": 1979,
      "Ġadditional": 1980,
      "Ġsince": 1981,
      "Ġdog": 1982,
      "ological": 1983,
      "Ġcommunity": 1984,
      "Ġautom": 1985,
      "Ġdirectory": 1986,
      "Ġhelps": 1987,
      "oring": 1988,
      "Ġexperien": 1989,
      "imately": 1990,
      "Ġment": 1991,
      "ules": 1992,
      "Ġchoice": 1993,
      "Ġhumans": 1994,
      "Ġregular": 1995,
      "Ġagainst": 1996,
      "ug": 1997,
      "ĠAmeric": 1998,
      "verage": 1999,
      "iled": 2000,
      "Ġpowerful": 2001,
      "Ġvariety": 2002,
      "iques": 2003,
      "Ġareas": 2004,
      "Ġcreated": 2005,
      "Ġservices": 2006,
      "Ġquantum": 2007,
      "word": 2008,
      "Ġfast": 2009,
      "abor": 2010,
      "ĠLet": 2011,
      "ĠInst": 2012,
      "Ġneeded": 2013,
      "based": 2014,
      "ww": 2015,
      "ĠThat": 2016,
      "Ġevent": 2017,
      "Ġrad": 2018,
      "ann": 2019,
      "ĠEng": 2020,
      "aging": 2021,
      "Ġgraph": 2022,
      "Ġeth": 2023,
      "asing": 2024,
      "Ġresults": 2025,
      "Ġpath": 2026,
      "Ġfram": 2027,
      "Ġimages": 2028,
      "ients": 2029,
      "19": 2030,
      "ik": 2031,
      "Ġside": 2032,
      "Ġsong": 2033,
      "icy": 2034,
      "Ġlanguages": 2035,
      "Ġdistance": 2036,
      "be": 2037,
      "Ġgovern": 2038,
      "side": 2039,
      "Ġsal": 2040,
      "Ġlove": 2041,
      "pecial": 2042,
      "Ġsec": 2043,
      "ĠEarth": 2044,
      "Ġaccount": 2045,
      "Ġsitu": 2046,
      "ctor": 2047,
      "ĠCom": 2048,
      "Ġgoals": 2049,
      "Ġsubject": 2050,
      "Ġideas": 2051,
      "path": 2052,
      "ndom": 2053,
      "ĠWrite": 2054,
      "just": 2055,
      "ties": 2056,
      "time": 2057,
      "ished": 2058,
      "ĠDes": 2059,
      "Ġminutes": 2060,
      "Ġrest": 2061,
      "Ġnature": 2062,
      "ample": 2063,
      "Ġexerc": 2064,
      "Ġaddress": 2065,
      "Ġrecogn": 2066,
      "Ġtarget": 2067,
      "Ġfurther": 2068,
      "Ġtechniques": 2069,
      "Ġprompt": 2070,
      "Ġdetermine": 2071,
      "ee": 2072,
      "lection": 2073,
      "Ġlength": 2074,
      "acks": 2075,
      "ogle": 2076,
      "Ġtravel": 2077,
      "Ġplayer": 2078,
      "ĠZ": 2079,
      "Ġsleep": 2080,
      "Ġtask": 2081,
      "Ġpolitical": 2082,
      "load": 2083,
      "ration": 2084,
      "ĠOn": 2085,
      "Ġdifference": 2086,
      "Ġclear": 2087,
      "Ġhome": 2088,
      "Ġlooking": 2089,
      "amp": 2090,
      "erence": 2091,
      "Ġinstead": 2092,
      "oot": 2093,
      "('": 2094,
      "23": 2095,
      "oci": 2096,
      "wards": 2097,
      "Ġbrow": 2098,
      "lex": 2099,
      "ĠPh": 2100,
      "Ġkind": 2101,
      "à°": 2102,
      "Ġcop": 2103,
      "Ġmor": 2104,
      "Ġcome": 2105,
      "Ġcomplete": 2106,
      "urope": 2107,
      "ury": 2108,
      "Ġlimit": 2109,
      "Ġsense": 2110,
      "ators": 2111,
      "ĠShe": 2112,
      "Ġtrue": 2113,
      "Ġindividuals": 2114,
      "'ve": 2115,
      "jor": 2116,
      "light": 2117,
      "me": 2118,
      "ĠGP": 2119,
      "Ġarch": 2120,
      "Ġfunctions": 2121,
      "Ġminim": 2122,
      "Ġachieve": 2123,
      "Ġaltern": 2124,
      "Ġadvant": 2125,
      "Ġrunning": 2126,
      "Ġeasier": 2127,
      "Ġinvolves": 2128,
      "Ġelements": 2129,
      "Ġflow": 2130,
      "Ġdone": 2131,
      "izes": 2132,
      "ze": 2133,
      "Ġchild": 2134,
      "Ġrequirements": 2135,
      "Ġphysical": 2136,
      "::": 2137,
      "Ġsomeone": 2138,
      "Ġsort": 2139,
      "Ġevents": 2140,
      "Ġactiv": 2141,
      "back": 2142,
      "Ġaction": 2143,
      "arb": 2144,
      "irt": 2145,
      "Ġscen": 2146,
      "Ġalgorithms": 2147,
      "Ġsens": 2148,
      "Ġloop": 2149,
      "Ġreact": 2150,
      "iment": 2151,
      "Ġneural": 2152,
      "Ġimm": 2153,
      "Ġchoose": 2154,
      "Ġvalid": 2155,
      "atic": 2156,
      "Ġreason": 2157,
      "Ġgre": 2158,
      "lying": 2159,
      "ately": 2160,
      "))": 2161,
      "orn": 2162,
      "Ġlevels": 2163,
      "Ġoccur": 2164,
      "Ġsingle": 2165,
      "iod": 2166,
      "pr": 2167,
      "Ġfac": 2168,
      "Ġgames": 2169,
      "Ġseries": 2170,
      "Ġstarting": 2171,
      "Ġattention": 2172,
      "Ġrece": 2173,
      "Ġstay": 2174,
      "Ġnever": 2175,
      "Ġconfig": 2176,
      "Ġtable": 2177,
      "Ġconditions": 2178,
      "ĠChe": 2179,
      "ĠBe": 2180,
      "Ġ:": 2181,
      "Ġcity": 2182,
      "Ġscience": 2183,
      "Ġtransform": 2184,
      "Ġbasic": 2185,
      "Ġintelligence": 2186,
      "St": 2187,
      "Ġfig": 2188,
      "ĠAre": 2189,
      "rypt": 2190,
      "Ġrequires": 2191,
      "ĠKe": 2192,
      "Ġuniverse": 2193,
      "Ġrisk": 2194,
      "Ġfar": 2195,
      "Ġey": 2196,
      "ĠYour": 2197,
      "Ġtraditional": 2198,
      "Ġevidence": 2199,
      "Ġvideo": 2200,
      "itect": 2201,
      "Ġpain": 2202,
      "aring": 2203,
      "Ġword": 2204,
      "Ġuseful": 2205,
      "Ġwhether": 2206,
      "Ġexplore": 2207,
      "ready": 2208,
      "ider": 2209,
      "Ġprin": 2210,
      "Ġdepends": 2211,
      "Ġleft": 2212,
      "ĠThank": 2213,
      "Ġsociety": 2214,
      "ises": 2215,
      "Ġpan": 2216,
      "Ġmax": 2217,
      "Ġmajor": 2218,
      "Ġphot": 2219,
      "hold": 2220,
      "inking": 2221,
      "Ġbat": 2222,
      "Ġlast": 2223,
      "Ġgain": 2224,
      "Ġrather": 2225,
      "Ġsets": 2226,
      "Ġchallenges": 2227,
      "Ġreach": 2228,
      "ilt": 2229,
      "ĠFin": 2230,
      "Ġenjoy": 2231,
      "ĠEurope": 2232,
      "ards": 2233,
      "Ġincludes": 2234,
      "Ġposition": 2235,
      "Ġoffers": 2236,
      "text": 2237,
      "Ġbenefits": 2238,
      "Ġtemperature": 2239,
      "mit": 2240,
      "Ġbal": 2241,
      "ĠAPI": 2242,
      "Ġbreak": 2243,
      "Ġidentify": 2244,
      "Ġrelevant": 2245,
      "ĠOverall": 2246,
      "Ġsequ": 2247,
      "ived": 2248,
      "Ġoption": 2249,
      "Ġpresent": 2250,
      "br": 2251,
      "Ġpie": 2252,
      "ush": 2253,
      "ula": 2254,
      "ĠRust": 2255,
      "ograph": 2256,
      "ording": 2257,
      "Ġsolar": 2258,
      "Ġtypically": 2259,
      ",\"": 2260,
      "ĠInt": 2261,
      "uments": 2262,
      "itial": 2263,
      "Ġmo": 2264,
      "ulate": 2265,
      "erences": 2266,
      "ney": 2267,
      "fort": 2268,
      "rast": 2269,
      "Ġcall": 2270,
      "Ġpres": 2271,
      "Ġbot": 2272,
      "Ġharm": 2273,
      "Ġtaking": 2274,
      "ah": 2275,
      "oura": 2276,
      "sequ": 2277,
      "Ġcollect": 2278,
      "Ġproduction": 2279,
      "Ġgrav": 2280,
      "Ġerror": 2281,
      "Ġquickly": 2282,
      "],": 2283,
      "we": 2284,
      "Ġcour": 2285,
      "Ġopp": 2286,
      "Ġalready": 2287,
      "priate": 2288,
      "50": 2289,
      "like": 2290,
      "Ġcases": 2291,
      "Ġabove": 2292,
      "Ġdetect": 2293,
      "iency": 2294,
      "Ġmeasure": 2295,
      "Ġphilosoph": 2296,
      "=\"": 2297,
      "Ġcannot": 2298,
      "uration": 2299,
      "Ġperiod": 2300,
      "Ġnormal": 2301,
      "ently": 2302,
      "ĠAt": 2303,
      "Ġexec": 2304,
      "Ġrout": 2305,
      "Ġvariable": 2306,
      "Ġformat": 2307,
      "Ġblock": 2308,
      "Ġgroup": 2309,
      "Ġscientific": 2310,
      "Ġaway": 2311,
      "Ġaccur": 2312,
      "Ġprovided": 2313,
      "Ġfriends": 2314,
      "Ġstreng": 2315,
      "Ġanalysis": 2316,
      "Ġslow": 2317,
      "Ġdevices": 2318,
      "Ġshare": 2319,
      "Ġadapt": 2320,
      "pecially": 2321,
      "ler": 2322,
      "Ġpython": 2323,
      "ĠTr": 2324,
      "ĠOnce": 2325,
      "Ġprevious": 2326,
      "ront": 2327,
      "ule": 2328,
      "Ġge": 2329,
      "duct": 2330,
      "Ġinterpre": 2331,
      "ribution": 2332,
      "Ġpatterns": 2333,
      "Ġarchitect": 2334,
      "Ġsources": 2335,
      "icate": 2336,
      "Ġforce": 2337,
      "istance": 2338,
      "Ġintrodu": 2339,
      "Ġwidely": 2340,
      "Ġfamily": 2341,
      "Ġessential": 2342,
      "++": 2343,
      "aw": 2344,
      "inter": 2345,
      "ones": 2346,
      "Ġcat": 2347,
      "utions": 2348,
      "Ġfeed": 2349,
      "Ġconsum": 2350,
      "bol": 2351,
      "Ġet": 2352,
      "Ġlive": 2353,
      "osed": 2354,
      "Ġadjust": 2355,
      "Ġconsist": 2356,
      "oney": 2357,
      "ĠExpl": 2358,
      "Ġpractice": 2359,
      "ohn": 2360,
      "Ġsafe": 2361,
      "ĠGoogle": 2362,
      "racy": 2363,
      "Ġvary": 2364,
      "Ġemploy": 2365,
      "Ġdetails": 2366,
      "Ġassoci": 2367,
      "Ġespecially": 2368,
      "ĠUS": 2369,
      "Ġneg": 2370,
      "Ġcoll": 2371,
      "Ġsmo": 2372,
      "Ġmaterials": 2373,
      "ane": 2374,
      "ancial": 2375,
      "Ġsuper": 2376,
      "Ġleast": 2377,
      "Ġgoal": 2378,
      "Ġrandom": 2379,
      "Ġstarted": 2380,
      "Ġproperties": 2381,
      "craft": 2382,
      "ĠCal": 2383,
      "âĢĿ": 2384,
      "Ġlarger": 2385,
      "Ġparamet": 2386,
      "Ġmass": 2387,
      "Ġbrain": 2388,
      "Ġlower": 2389,
      "Ġroom": 2390,
      "Ġpredict": 2391,
      "Ġrelated": 2392,
      "Ġleading": 2393,
      "chool": 2394,
      "come": 2395,
      "uild": 2396,
      "Ġhold": 2397,
      "Ġstop": 2398,
      "ift": 2399,
      "Ġexpect": 2400,
      "Ġrob": 2401,
      "Ġadvanced": 2402,
      "ynam": 2403,
      "Ġthought": 2404,
      "Ġhigher": 2405,
      "Ġrate": 2406,
      "ivil": 2407,
      "ĠEm": 2408,
      "Ġmedia": 2409,
      "Ġconcern": 2410,
      "Ġappropriate": 2411,
      "land": 2412,
      "Ġfire": 2413,
      "Ġnight": 2414,
      "Ġmeet": 2415,
      "indows": 2416,
      "ĠNo": 2417,
      "Ġoffer": 2418,
      "Ġelectric": 2419,
      "volution": 2420,
      "aling": 2421,
      "Ġhttps": 2422,
      "Ġsupp": 2423,
      "ĠRem": 2424,
      "Ġ==": 2425,
      "Ġdescript": 2426,
      "Ġhighly": 2427,
      "Ġfrequ": 2428,
      "oes": 2429,
      "amed": 2430,
      "Ġant": 2431,
      "ung": 2432,
      "ĠDis": 2433,
      "Ġprogress": 2434,
      "ologies": 2435,
      "ĠâĢľ": 2436,
      "ĠAssistant": 2437,
      "Â°": 2438,
      "Ġdam": 2439,
      "etic": 2440,
      "imens": 2441,
      "aches": 2442,
      "Ġdifferences": 2443,
      "Ġpositive": 2444,
      "pportun": 2445,
      "Ġtrying": 2446,
      "ĠUnited": 2447,
      "Ġdocument": 2448,
      "Ġprofessional": 2449,
      "bs": 2450,
      "pare": 2451,
      "source": 2452,
      "aps": 2453,
      "app": 2454,
      "Ġâ": 2455,
      "Ġlittle": 2456,
      "Ġ&": 2457,
      "Ġmill": 2458,
      "Ġlot": 2459,
      "empt": 2460,
      "Ġdoing": 2461,
      "Ġproperty": 2462,
      "----------------": 2463,
      "][": 2464,
      "lict": 2465,
      "ither": 2466,
      "Ġacross": 2467,
      "Ġanything": 2468,
      "Ġparts": 2469,
      "Ġsaid": 2470,
      "Ġhistor": 2471,
      "Ġswit": 2472,
      "cies": 2473,
      "Ġfore": 2474,
      "Ġgoing": 2475,
      "Ġprim": 2476,
      "Ġhandle": 2477,
      "Ġclean": 2478,
      "Ġcapt": 2479,
      "Ġopportun": 2480,
      "Ġgenerally": 2481,
      "Ġproduce": 2482,
      "ground": 2483,
      "Ġdeb": 2484,
      "Ġobser": 2485,
      "Ġmathematical": 2486,
      "Ġdraw": 2487,
      "Ġprinci": 2488,
      "ml": 2489,
      "Ġfall": 2490,
      "Ġheart": 2491,
      "Ġprocessing": 2492,
      "Ġcontinue": 2493,
      "Ġstrength": 2494,
      "inary": 2495,
      "ont": 2496,
      "Ġanc": 2497,
      "ĠSer": 2498,
      "Ġeffects": 2499,
      "Ġyear": 2500,
      "Ġsummary": 2501,
      "fact": 2502,
      "nds": 2503,
      "use": 2504,
      "Ġoverall": 2505,
      "Ġdevelopers": 2506,
      "Ġdecision": 2507,
      "Ġplanet": 2508,
      "ault": 2509,
      "ipe": 2510,
      "ystem": 2511,
      "Ġput": 2512,
      "umn": 2513,
      "Ġchord": 2514,
      "aves": 2515,
      "Ġroot": 2516,
      "ensive": 2517,
      "Ġemot": 2518,
      "head": 2519,
      "Ġbase": 2520,
      "Ġhours": 2521,
      "Ġloss": 2522,
      "Ġplayers": 2523,
      "Ġproviding": 2524,
      "Ġefficiency": 2525,
      "Ġconcepts": 2526,
      "Ġcirc": 2527,
      "dr": 2528,
      "ison": 2529,
      "Ġpay": 2530,
      "Ġdream": 2531,
      "ĠBl": 2532,
      "Ġshape": 2533,
      "Ġprocesses": 2534,
      "Ġproducts": 2535,
      "Ġfour": 2536,
      "Ġhab": 2537,
      "Ġsepar": 2538,
      "Ġcompared": 2539,
      "ĠNe": 2540,
      "ints": 2541,
      "Ġkeyboard": 2542,
      "Ġgovernment": 2543,
      "15": 2544,
      "man": 2545,
      "Ġfull": 2546,
      "Ġinn": 2547,
      "odes": 2548,
      "Ġservice": 2549,
      "atively": 2550,
      "akes": 2551,
      "Ġpsy": 2552,
      "Ġhost": 2553,
      "Ġprob": 2554,
      "ĠWhy": 2555,
      "Ġlocation": 2556,
      "AT": 2557,
      "itor": 2558,
      "Ġdark": 2559,
      "Ġreview": 2560,
      "Ġheat": 2561,
      "ĠInc": 2562,
      "Ġarray": 2563,
      "Ġbig": 2564,
      "Ġdest": 2565,
      "ulations": 2566,
      "key": 2567,
      "abilities": 2568,
      "Ġdeveloped": 2569,
      "clusion": 2570,
      "Ġhardware": 2571,
      "Ġgrowth": 2572,
      "log": 2573,
      "Ġver": 2574,
      "orial": 2575,
      "itable": 2576,
      "Ġseen": 2577,
      "ĠNote": 2578,
      "Ġcells": 2579,
      "AI": 2580,
      "istics": 2581,
      "Ġrules": 2582,
      "soft": 2583,
      "Ġrequired": 2584,
      "Ġdigital": 2585,
      "ges": 2586,
      "ror": 2587,
      "Ġfit": 2588,
      "ĠAp": 2589,
      "ĠGree": 2590,
      "Ġabs": 2591,
      "Ġ30": 2592,
      "Ġhelpful": 2593,
      "Ġdatab": 2594,
      "ĠUs": 2595,
      "Ġblue": 2596,
      "Ġchallenging": 2597,
      "Script": 2598,
      "au": 2599,
      "bon": 2600,
      "Ġtips": 2601,
      "Ġcard": 2602,
      "Ġfaster": 2603,
      "Ġmar": 2604,
      "Ġground": 2605,
      "Ġclose": 2606,
      "Ġestab": 2607,
      "by": 2608,
      "cious": 2609,
      "mos": 2610,
      "ello": 2611,
      "Ġdistribution": 2612,
      "ÂłÂłÂłÂł": 2613,
      "Ġcourse": 2614,
      "GP": 2615,
      "anch": 2616,
      "Ġmix": 2617,
      "Ġbit": 2618,
      "Ġbra": 2619,
      "ĠWorld": 2620,
      "Ġcompet": 2621,
      "Ġsmaller": 2622,
      "Ġnetworks": 2623,
      "Ġwritten": 2624,
      "12": 2625,
      "go": 2626,
      "Ġ%": 2627,
      "Ġschool": 2628,
      "ification": 2629,
      "Ġallowing": 2630,
      "Ġprojects": 2631,
      "Ġfinancial": 2632,
      "Ġsuccessful": 2633,
      "icrosoft": 2634,
      "ping": 2635,
      "python": 2636,
      "Ġcivil": 2637,
      "Ġtoday": 2638,
      "igate": 2639,
      "Ġaspect": 2640,
      "Ġconvers": 2641,
      "Ġgetting": 2642,
      "Ġpurpose": 2643,
      "Ġcomponents": 2644,
      "Ġaverage": 2645,
      "isions": 2646,
      "Ġful": 2647,
      "Ġdate": 2648,
      "Ġdays": 2649,
      "Ġgas": 2650,
      "Ġonce": 2651,
      "ĠCol": 2652,
      "ĠOr": 2653,
      "ificial": 2654,
      "arning": 2655,
      "Ġemail": 2656,
      "obal": 2657,
      "Ġlayer": 2658,
      "fect": 2659,
      "rop": 2660,
      "Ġvariables": 2661,
      "Ġflo": 2662,
      "Ġmatter": 2663,
      "Ġlimited": 2664,
      "Ġparticularly": 2665,
      "cc": 2666,
      "oud": 2667,
      "Ġgreen": 2668,
      "Ġconsequ": 2669,
      "ĠWindows": 2670,
      "Ġplant": 2671,
      "Ġspecies": 2672,
      "Ġdisplay": 2673,
      "ĠJohn": 2674,
      "Ġconstant": 2675,
      "')": 2676,
      "anks": 2677,
      "Ġface": 2678,
      "Ġones": 2679,
      "une": 2680,
      "Ġexact": 2681,
      "Ġrock": 2682,
      "Ġtax": 2683,
      "Ġcommunication": 2684,
      "Ġoperating": 2685,
      "Ġanaly": 2686,
      "Ġeggs": 2687,
      "Ġoil": 2688,
      "Ġred": 2689,
      "Ġ12": 2690,
      "Ġexplan": 2691,
      "new": 2692,
      "Ġindustry": 2693,
      "irtual": 2694,
      "ining": 2695,
      "alu": 2696,
      "Ġalong": 2697,
      "Ġ16": 2698,
      "ights": 2699,
      "ival": 2700,
      "elling": 2701,
      "Ġamong": 2702,
      "Ġbecom": 2703,
      "Ġthroughout": 2704,
      "Ġelement": 2705,
      "ĠAmerican": 2706,
      "ians": 2707,
      "Ġsat": 2708,
      "alf": 2709,
      "ids": 2710,
      "Ġ18": 2711,
      "izations": 2712,
      "Ġincor": 2713,
      "Ġeffort": 2714,
      "Ġattempt": 2715,
      "Ġguid": 2716,
      "Ġhappen": 2717,
      "Ġethical": 2718,
      "ailed": 2719,
      "alking": 2720,
      "Ġeither": 2721,
      "Ġlab": 2722,
      "Ġtrack": 2723,
      "ĠChat": 2724,
      "Ġreflect": 2725,
      "Ġcountry": 2726,
      "Ġaudience": 2727,
      "Ġactivities": 2728,
      "Ġetc": 2729,
      "file": 2730,
      "Ġing": 2731,
      "Ġusually": 2732,
      "hers": 2733,
      "pper": 2734,
      "Ġweek": 2735,
      "ĠNew": 2736,
      "Ġdiscuss": 2737,
      "Ġmanagement": 2738,
      "iddle": 2739,
      "eed": 2740,
      "asons": 2741,
      "Ġnp": 2742,
      "ĠĠĠĠčĊ": 2743,
      "Ġ11": 2744,
      "phas": 2745,
      "Ġdoesn": 2746,
      "Ġauthor": 2747,
      "Ġsequence": 2748,
      "__": 2749,
      "tr": 2750,
      "arc": 2751,
      "plies": 2752,
      "Ġ200": 2753,
      "Ġrespect": 2754,
      "ĠNow": 2755,
      "Ġclimate": 2756,
      "Ġsolution": 2757,
      "Ġdistribut": 2758,
      "ĠQu": 2759,
      "Ġage": 2760,
      "erous": 2761,
      "Ġcook": 2762,
      "Ġmoney": 2763,
      "ĠGerm": 2764,
      "Ġaccept": 2765,
      "avor": 2766,
      "Ġlonger": 2767,
      "Ġsquare": 2768,
      "Ġancient": 2769,
      "Ġbooks": 2770,
      "Ġreally": 2771,
      "Ġnamed": 2772,
      "ament": 2773,
      "ĠSet": 2774,
      "ager": 2775,
      "Ġentire": 2776,
      "Ġbelieve": 2777,
      "Ġpaper": 2778,
      "Ġcopy": 2779,
      "set": 2780,
      "itation": 2781,
      "Ġthing": 2782,
      "Ġlives": 2783,
      "erson": 2784,
      "Ġevalu": 2785,
      "ĠStates": 2786,
      "Ġnoise": 2787,
      "Ġtrained": 2788,
      "Ġinsp": 2789,
      "Ġconflict": 2790,
      "Ġprior": 2791,
      "Ġbelief": 2792,
      "Ġlibraries": 2793,
      "Ġframew": 2794,
      "list": 2795,
      "Ġworth": 2796,
      "ised": 2797,
      "Ġdang": 2798,
      "ĠFirst": 2799,
      "ustain": 2800,
      "Ġjour": 2801,
      "Ġemb": 2802,
      "ĠAnother": 2803,
      "Ġmonth": 2804,
      "Ġinnov": 2805,
      "cs": 2806,
      "oman": 2807,
      "redients": 2808,
      "Ġveget": 2809,
      "Ġoriginal": 2810,
      "hent": 2811,
      "Ġpost": 2812,
      "ĠAfter": 2813,
      "ĠStart": 2814,
      "Ġcultural": 2815,
      "force": 2816,
      "Ġexperiences": 2817,
      "Ġarchitecture": 2818,
      "Ġstates": 2819,
      "unch": 2820,
      "umb": 2821,
      "osing": 2822,
      "Ġpolicy": 2823,
      "Ġculture": 2824,
      "30": 2825,
      "Ch": 2826,
      "tml": 2827,
      "Ġbar": 2828,
      "Ġbed": 2829,
      "Ġste": 2830,
      "Ġwhite": 2831,
      "Ġchem": 2832,
      "Ġmedical": 2833,
      "ĠDevelop": 2834,
      "ĠEnglish": 2835,
      "Ġmaxim": 2836,
      "col": 2837,
      "ym": 2838,
      "Ġlat": 2839,
      "ission": 2840,
      "Ġimplementation": 2841,
      "Ġsymbol": 2842,
      "ĠFinally": 2843,
      "lished": 2844,
      "Ġpow": 2845,
      "Ġinitial": 2846,
      "Ġearly": 2847,
      "aming": 2848,
      "aced": 2849,
      "ively": 2850,
      "Ġperspect": 2851,
      "Ġsurface": 2852,
      "Ġprivate": 2853,
      "Ġassociated": 2854,
      "https": 2855,
      "à¤": 2856,
      "Ġdynam": 2857,
      "ĠHT": 2858,
      "Ġheav": 2859,
      "ĠPre": 2860,
      "Ġplaying": 2861,
      "Ġwindow": 2862,
      "AR": 2863,
      "QL": 2864,
      "ipp": 2865,
      "Ġselect": 2866,
      "Ġsurv": 2867,
      "Ġcarbon": 2868,
      "ait": 2869,
      "Ġtreat": 2870,
      "Ġyoung": 2871,
      "ĠMan": 2872,
      "Ġsynt": 2873,
      "Ġemphas": 2874,
      "Ġformula": 2875,
      "Ġstrategy": 2876,
      "Ġintegr": 2877,
      "ding": 2878,
      "sel": 2879,
      "world": 2880,
      "ising": 2881,
      "Ġrow": 2882,
      "Ġprice": 2883,
      "Ġblack": 2884,
      "Ġinvolved": 2885,
      "Ġstandard": 2886,
      "iel": 2887,
      "ĠInd": 2888,
      "Ġang": 2889,
      "Ġspeak": 2890,
      "Ġclient": 2891,
      "Ġconscious": 2892,
      "Ġbuilt": 2893,
      "Ġprograms": 2894,
      "Ġguit": 2895,
      "Ġcurrently": 2896,
      "Ġcountries": 2897,
      "ĠKeep": 2898,
      "In": 2899,
      "my": 2900,
      "omen": 2901,
      "Ġcompan": 2902,
      "ĠĠĠĠĠĠĠĠĠĠĠĠĠĠĠ": 2903,
      "ĠStep": 2904,
      "Ġexperiment": 2905,
      "Ġfix": 2906,
      "Ġletter": 2907,
      "Ġtesting": 2908,
      "ius": 2909,
      "ocol": 2910,
      "Ġsmart": 2911,
      "rench": 2912,
      "Ġdescribe": 2913,
      "Ġalternative": 2914,
      "che": 2915,
      "ply": 2916,
      "icious": 2917,
      "uth": 2918,
      "Ġdatas": 2919,
      "Ġspecif": 2920,
      "Ġcustomer": 2921,
      "Ġsituation": 2922,
      "'d": 2923,
      "11": 2924,
      "do": 2925,
      "ele": 2926,
      "Ġcross": 2927,
      "ister": 2928,
      "ĠTry": 2929,
      "Ġcomes": 2930,
      "Ġfeature": 2931,
      "aving": 2932,
      "Ġsimpl": 2933,
      "Ġbuy": 2934,
      "Ġassum": 2935,
      "Ġregard": 2936,
      "Ġcool": 2937,
      "Ġinvolve": 2938,
      "Ġvisual": 2939,
      "ĠCont": 2940,
      "Ġfields": 2941,
      "Ġglobal": 2942,
      "Ġdrive": 2943,
      "Ġrelationships": 2944,
      "Ġfeedback": 2945,
      "host": 2946,
      "Ġgold": 2947,
      "ĠComm": 2948,
      "Ġcontinu": 2949,
      "ensity": 2950,
      "Ġstudents": 2951,
      "Ġdirectly": 2952,
      "ĠJavaScript": 2953,
      "Ġaccurate": 2954,
      "gra": 2955,
      "iet": 2956,
      "Ġsustain": 2957,
      "Ġfund": 2958,
      "Ġdiv": 2959,
      "arily": 2960,
      "ĠEl": 2961,
      "Ġactions": 2962,
      "ĠProv": 2963,
      "Ġbring": 2964,
      "Ġmechanics": 2965,
      "Ġpressure": 2966,
      "ography": 2967,
      "dom": 2968,
      "itle": 2969,
      "Ġitems": 2970,
      "acter": 2971,
      "ĠRed": 2972,
      "Ġcomputing": 2973,
      "ĠReg": 2974,
      "Ġexpress": 2975,
      "Ġcalculate": 2976,
      "Ġdemon": 2977,
      "Ġargument": 2978,
      "Ġprivacy": 2979,
      "ounter": 2980,
      "ech": 2981,
      "Ġmom": 2982,
      "Ġtowards": 2983,
      "Ġload": 2984,
      "ĠEach": 2985,
      "Ġeverything": 2986,
      "Ġcomponent": 2987,
      "mar": 2988,
      "rel": 2989,
      "itud": 2990,
      "Ġwon": 2991,
      "Ġdom": 2992,
      "urance": 2993,
      "Ġroll": 2994,
      "Ġbehind": 2995,
      "Ġmotiv": 2996,
      "Ġdatabase": 2997,
      "aim": 2998,
      "iable": 2999,
      "min": 3000,
      "met": 3001,
      "iles": 3002,
      "ĠWhich": 3003,
      "ended": 3004,
      "Ġremember": 3005,
      "Ġcomplexity": 3006,
      "Ġdiet": 3007,
      "Ġeduc": 3008,
      "Ġsecure": 3009,
      "ype": 3010,
      "Ġfive": 3011,
      "icial": 3012,
      "Ġnut": 3013,
      "ops": 3014,
      "Ġevol": 3015,
      "ructions": 3016,
      "Ġphysics": 3017,
      "Ġgraphics": 3018,
      "co": 3019,
      "cent": 3020,
      "Ġut": 3021,
      "Ġaim": 3022,
      "ret": 3023,
      "Ġbad": 3024,
      "Ġder": 3025,
      "ĠSu": 3026,
      "Ġ100": 3027,
      "ĠFr": 3028,
      "resh": 3029,
      "arent": 3030,
      "Ġinterface": 3031,
      "Ġemerg": 3032,
      "Ġdecisions": 3033,
      "Ġreturns": 3034,
      "Ġsurround": 3035,
      "Ġinfluence": 3036,
      "IT": 3037,
      "ged": 3038,
      "Ġtast": 3039,
      "Ġaware": 3040,
      "Ġsn": 3041,
      "era": 3042,
      "Ġstress": 3043,
      "();": 3044,
      "Ġmagic": 3045,
      "ĠCheck": 3046,
      "Ġguitar": 3047,
      "aur": 3048,
      "mon": 3049,
      "uce": 3050,
      "Ġtheories": 3051,
      "nding": 3052,
      "user": 3053,
      "Ġdevice": 3054,
      "rix": 3055,
      "ache": 3056,
      "ĠMat": 3057,
      "Ġled": 3058,
      "ĠGe": 3059,
      "Ġnovel": 3060,
      "Ġauthent": 3061,
      "Ġcontains": 3062,
      "Ġanimals": 3063,
      "tings": 3064,
      "Ġearth": 3065,
      "Ġchann": 3066,
      "Ġsche": 3067,
      "Ġmodify": 3068,
      "lude": 3069,
      "Ġrecipe": 3070,
      "Ġhappy": 3071,
      "Ġconfiguration": 3072,
      "izz": 3073,
      "resp": 3074,
      "Ġtaken": 3075,
      "Ġdefin": 3076,
      "Ġtopic": 3077,
      "Ġissue": 3078,
      "Ġplatforms": 3079,
      "ML": 3080,
      "Ġcut": 3081,
      "Ġbow": 3082,
      "Ġhot": 3083,
      "Ġconclusion": 3084,
      "unt": 3085,
      "Ġdise": 3086,
      "Ġtransl": 3087,
      "Ġcheese": 3088,
      "Ġreducing": 3089,
      "Ġfinal": 3090,
      "Ġcombination": 3091,
      "Ġgravity": 3092,
      "Ġdamage": 3093,
      "Ġprinciples": 3094,
      "ĠUsing": 3095,
      "uel": 3096,
      "Ġmel": 3097,
      "Ġprote": 3098,
      "Ġcomfort": 3099,
      "ĠData": 3100,
      "Ġplants": 3101,
      "sole": 3102,
      "ruction": 3103,
      "Ġincreasing": 3104,
      "Ġhistorical": 3105,
      "pite": 3106,
      "Ġdesired": 3107,
      "Ġtechnologies": 3108,
      "Ġflu": 3109,
      "Ġeasily": 3110,
      "...": 3111,
      "Ġsafety": 3112,
      "Ġappear": 3113,
      "Ġsupply": 3114,
      "Ġpsych": 3115,
      "num": 3116,
      "su": 3117,
      "alle": 3118,
      "Ġbud": 3119,
      "Ġ--": 3120,
      "outh": 3121,
      "versity": 3122,
      "Ġpoly": 3123,
      "ructure": 3124,
      "Ġrequests": 3125,
      "ĠRemember": 3126,
      "16": 3127,
      "bit": 3128,
      "down": 3129,
      "ees": 3130,
      "edi": 3131,
      "ĠTake": 3132,
      "ili": 3133,
      "quality": 3134,
      "ĠPer": 3135,
      "Ġchain": 3136,
      "ĠGener": 3137,
      "Ġbecame": 3138,
      "Ġinfin": 3139,
      "Ġconsequences": 3140,
      "40": 3141,
      "80": 3142,
      "ON": 3143,
      "data": 3144,
      "Ġter": 3145,
      "org": 3146,
      "arl": 3147,
      "Ġperfect": 3148,
      "iction": 3149,
      "Ġfollows": 3150,
      "Ġmatch": 3151,
      "Ġsolve": 3152,
      "Ġbackground": 3153,
      "Ġproperly": 3154,
      "Ġpotentially": 3155,
      "Ġcentury": 3156,
      "ĠConsider": 3157,
      "Ġbalance": 3158,
      "ourage": 3159,
      "ai": 3160,
      "know": 3161,
      "Ġpip": 3162,
      "aly": 3163,
      "Ġlines": 3164,
      "ĠCertain": 3165,
      "Ġexc": 3166,
      "ountain": 3167,
      "ternal": 3168,
      "Ġsuggestions": 3169,
      "Ġgroups": 3170,
      "Ġbott": 3171,
      "Ġparameters": 3172,
      "GPT": 3173,
      "Ġcompanies": 3174,
      "Tube": 3175,
      "Ġtim": 3176,
      "inc": 3177,
      "Ġlack": 3178,
      "Ġnav": 3179,
      "imin": 3180,
      "Ġgram": 3181,
      "Ġbeaut": 3182,
      "raw": 3183,
      "ĠThen": 3184,
      "ĠMon": 3185,
      "aily": 3186,
      "Ġattack": 3187,
      "Ġreport": 3188,
      "Ġapprox": 3189,
      "Ġincreased": 3190,
      "Ġoperations": 3191,
      "Ġartificial": 3192,
      "Ġinteresting": 3193,
      "Ġmessages": 3194,
      "Ġdemand": 3195,
      "Ġpackage": 3196,
      "Ġadvantage": 3197,
      "dd": 3198,
      "date": 3199,
      "gen": 3200,
      "asy": 3201,
      "Ġlif": 3202,
      "Ġdeg": 3203,
      "ored": 3204,
      "Ġsuitable": 3205,
      "Ġneur": 3206,
      "Ġcollection": 3207,
      "Ġreference": 3208,
      "Ġcommonly": 3209,
      "Ġresponses": 3210,
      "Ġeffectively": 3211,
      "Ġstrategies": 3212,
      "Ġeyes": 3213,
      "Ġfully": 3214,
      "dir": 3215,
      "ging": 3216,
      "Ġmention": 3217,
      "adem": 3218,
      "Ġvirtual": 3219,
      "Ġcommit": 3220,
      "ension": 3221,
      "Ġcolumn": 3222,
      "Ġrecord": 3223,
      "overed": 3224,
      "Ġactually": 3225,
      "Ġcenter": 3226,
      "Ġmovement": 3227,
      "22": 3228,
      "gest": 3229,
      "rong": 3230,
      "zz": 3231,
      "onom": 3232,
      "Ġrepe": 3233,
      "Ġstru": 3234,
      "Ġpropos": 3235,
      "Ġupon": 3236,
      "Ġwhole": 3237,
      "Ġelectr": 3238,
      "Ġpassword": 3239,
      "Ġinterested": 3240,
      "ohol": 3241,
      "Ġinterpret": 3242,
      "AM": 3243,
      "part": 3244,
      "Ġ?": 3245,
      "ativity": 3246,
      "itions": 3247,
      "Ġfru": 3248,
      "Ġded": 3249,
      "room": 3250,
      "ĠSince": 3251,
      "ump": 3252,
      "Ġdeath": 3253,
      "ably": 3254,
      "Ġ15": 3255,
      "ĠFrom": 3256,
      "Ġmode": 3257,
      "Ġinside": 3258,
      "Ġexercise": 3259,
      "</": 3260,
      "cohol": 3261,
      "html": 3262,
      "Ġcup": 3263,
      "ening": 3264,
      "Ġflex": 3265,
      "Ġbir": 3266,
      "Ġtot": 3267,
      "ĠMay": 3268,
      "ĠMicrosoft": 3269,
      "ocks": 3270,
      "ĠFrench": 3271,
      "Ġshap": 3272,
      "rame": 3273,
      "ĠYouTube": 3274,
      "Ġsolutions": 3275,
      "issions": 3276,
      "ĠTrans": 3277,
      "LE": 3278,
      "['": 3279,
      "sp": 3280,
      "Ġill": 3281,
      "Ġfront": 3282,
      "Ġmen": 3283,
      "Ġlater": 3284,
      "Ġliving": 3285,
      "Ġweather": 3286,
      "Ġscale": 3287,
      "Ġsimply": 3288,
      "Ġelectron": 3289,
      "Ġhealthy": 3290,
      "Ġpractices": 3291,
      "www": 3292,
      "na": 3293,
      "Ġpage": 3294,
      "Ġthread": 3295,
      "oding": 3296,
      "Ġvul": 3297,
      "ĠPC": 3298,
      "ĠPr": 3299,
      "angle": 3300,
      "Ġrelig": 3301,
      "Ġsave": 3302,
      "Ġeveryone": 3303,
      "Ġbranch": 3304,
      "Ġcustomers": 3305,
      "Ġrecommended": 3306,
      "Ġgreater": 3307,
      "Ġsmooth": 3308,
      "ma": 3309,
      "Ġult": 3310,
      "isms": 3311,
      "ĠSim": 3312,
      "Ġ->": 3313,
      "ĠGet": 3314,
      "Ġcreatures": 3315,
      "apter": 3316,
      "Ġspread": 3317,
      "Ġsetting": 3318,
      "Ġadvice": 3319,
      "right": 3320,
      "Ġtheore": 3321,
      "roll": 3322,
      "ership": 3323,
      "Ġdetailed": 3324,
      "Ġdefine": 3325,
      "ĠAlso": 3326,
      "Ġstructures": 3327,
      "Ġmovie": 3328,
      "Ġsalt": 3329,
      "Ġnegative": 3330,
      "Ġincorpor": 3331,
      "bl": 3332,
      "epend": 3333,
      "Ġtree": 3334,
      "Ġcam": 3335,
      "Ġinj": 3336,
      "Ġreplace": 3337,
      "opt": 3338,
      "ptions": 3339,
      "Ġimportance": 3340,
      "arian": 3341,
      "Ġattacks": 3342,
      "Ġblood": 3343,
      "Ġ</": 3344,
      "Ġvector": 3345,
      "inct": 3346,
      "ask": 3347,
      "Ġreality": 3348,
      "ĠPy": 3349,
      "ached": 3350,
      "Ġscreen": 3351,
      "Ġoutside": 3352,
      "Ġfeeling": 3353,
      "Ġconnection": 3354,
      "Ġresponsible": 3355,
      "Ġcareful": 3356,
      "selves": 3357,
      "Ġmoment": 3358,
      "cks": 3359,
      "fit": 3360,
      "ðŁ": 3361,
      "inks": 3362,
      "Ġcore": 3363,
      "Ġnames": 3364,
      "Ġstri": 3365,
      "Ġexpert": 3366,
      "Ġvulner": 3367,
      "friend": 3368,
      "script": 3369,
      "Ġsect": 3370,
      "Ġpick": 3371,
      "Ġnu": 3372,
      "ĠGod": 3373,
      "Ġapart": 3374,
      "Ġrefers": 3375,
      "Ġinternet": 3376,
      "ĠCertainly": 3377,
      "Ġstrugg": 3378,
      "Ġtotal": 3379,
      "train": 3380,
      "ina": 3381,
      "Ġmaster": 3382,
      "alse": 3383,
      "level": 3384,
      "plied": 3385,
      "Ġcho": 3386,
      "Ġenem": 3387,
      "Ġweak": 3388,
      "iber": 3389,
      "Ġtrust": 3390,
      "Ġcolors": 3391,
      "Ġforms": 3392,
      "Ġactive": 3393,
      "ĠTherefore": 3394,
      "**:": 3395,
      "Ġliter": 3396,
      "ĠExplain": 3397,
      "Ġdescription": 3398,
      "Ġframework": 3399,
      "Ġbudget": 3400,
      "care": 3401,
      "lt": 3402,
      "Ġcrypt": 3403,
      "Ġfight": 3404,
      "Ġmi": 3405,
      "eline": 3406,
      "Ġsup": 3407,
      "ĠThanks": 3408,
      "Ġphone": 3409,
      "Ġrace": 3410,
      "Ġmagn": 3411,
      "Ġsounds": 3412,
      "Ġvolume": 3413,
      "Ġconcerns": 3414,
      "ĠGreek": 3415,
      "Ġdemonstr": 3416,
      "itude": 3417,
      "32": 3418,
      "`.": 3419,
      "af": 3420,
      "rist": 3421,
      "yond": 3422,
      "Ġcru": 3423,
      "Ġparent": 3424,
      "ĠĠčĊ": 3425,
      "Ġdou": 3426,
      "Ġdaily": 3427,
      "rap": 3428,
      "term": 3429,
      "ested": 3430,
      "astic": 3431,
      "Ġitself": 3432,
      "hens": 3433,
      "Ġsubst": 3434,
      "Ġtopics": 3435,
      "Ġbox": 3436,
      "Ġlaws": 3437,
      "fficient": 3438,
      "Ġrobot": 3439,
      "Ġopportunities": 3440,
      "bre": 3441,
      "ĉĠ": 3442,
      "ĠTw": 3443,
      "ĠAll": 3444,
      "ĠPe": 3445,
      "ĠRes": 3446,
      "Ġabilities": 3447,
      "Ġmanip": 3448,
      "Ġrespond": 3449,
      "Ġsky": 3450,
      "Ġfilm": 3451,
      "Ġenvironmental": 3452,
      "Ġlayers": 3453,
      "Ġcapture": 3454,
      "rics": 3455,
      "uracy": 3456,
      "xy": 3457,
      "ouch": 3458,
      "encies": 3459,
      "Ġfine": 3460,
      "ĠBrit": 3461,
      "ĠGood": 3462,
      "ĠGreat": 3463,
      "Ġspeech": 3464,
      "Ġspir": 3465,
      "Ġcolle": 3466,
      "Ġactivity": 3467,
      "hesis": 3468,
      "Ġremove": 3469,
      "Ġexisting": 3470,
      "gs": 3471,
      "hy": 3472,
      "phere": 3473,
      "Ġfair": 3474,
      "Ġthinking": 3475,
      "Ġnode": 3476,
      "Ġvoice": 3477,
      "Ġimag": 3478,
      "Ġaccom": 3479,
      "Ġmedium": 3480,
      "Ġmembers": 3481,
      "Ġinterests": 3482,
      "value": 3483,
      "Ġchemical": 3484,
      "13": 3485,
      "oon": 3486,
      "ole": 3487,
      "war": 3488,
      "Ġmut": 3489,
      "Ġball": 3490,
      "icles": 3491,
      "Ġreasons": 3492,
      "chain": 3493,
      "istical": 3494,
      "Ġheight": 3495,
      "ĠWar": 3496,
      "ĠMod": 3497,
      "ĠInter": 3498,
      "ounds": 3499,
      "oved": 3500,
      "Ġchanging": 3501,
      "Ġmeasures": 3502,
      "Ġinfluen": 3503,
      "Ġsentence": 3504,
      "Ġlegal": 3505,
      "Hello": 3506,
      "Ġwood": 3507,
      "Ġfish": 3508,
      "Ġgot": 3509,
      "elt": 3510,
      "Ġcreates": 3511,
      "Ġprec": 3512,
      "Ġtransport": 3513,
      "Ġadvent": 3514,
      "Ġpoll": 3515,
      "Ġaccuracy": 3516,
      "Ġexercises": 3517,
      "Ġcollabor": 3518,
      "Ġmillion": 3519,
      "Ġdataset": 3520,
      "']": 3521,
      "cking": 3522,
      "het": 3523,
      "Ġmer": 3524,
      "icle": 3525,
      "Ġhouse": 3526,
      "ĠBuild": 3527,
      "apan": 3528,
      "Ġ###": 3529,
      "Ġresulting": 3530,
      "Ġexpand": 3531,
      "Ġguide": 3532,
      "Ġdownload": 3533,
      "Ġequal": 3534,
      "Ġorganization": 3535,
      "ĠChatGPT": 3536,
      "ĠProvide": 3537,
      "RL": 3538,
      "off": 3539,
      "Ġever": 3540,
      "Ġyet": 3541,
      "uries": 3542,
      "Ġalcohol": 3543,
      "izer": 3544,
      "Ġshad": 3545,
      "Ġscal": 3546,
      "Ġflight": 3547,
      "Ġsignal": 3548,
      "Ġmathematics": 3549,
      "Ġpreferences": 3550,
      "Ġupdate": 3551,
      "ID": 3552,
      "aff": 3553,
      "flow": 3554,
      "iation": 3555,
      "Ã©": 3556,
      "orry": 3557,
      "Ġwalk": 3558,
      "rief": 3559,
      "Ġrise": 3560,
      "Ġsea": 3561,
      "resents": 3562,
      "inder": 3563,
      "ĠName": 3564,
      "Ġacadem": 3565,
      "Ġmyth": 3566,
      "Ġcomputers": 3567,
      "Ġlocated": 3568,
      "Ġequation": 3569,
      "Ġdrink": 3570,
      "Ġlimitations": 3571,
      "gar": 3572,
      "oe": 3573,
      "Ġmac": 3574,
      "Ġrein": 3575,
      "Ġexce": 3576,
      "Ġdead": 3577,
      "Ġsend": 3578,
      "Ġseem": 3579,
      "ĠOf": 3580,
      "Ġquery": 3581,
      "Ġconsult": 3582,
      "Ġexistence": 3583,
      "Ġexecut": 3584,
      "Ġingredients": 3585,
      "Ġbeliefs": 3586,
      "ĠHTML": 3587,
      "Ġconsciousness": 3588,
      "cos": 3589,
      "ye": 3590,
      "Ġthreat": 3591,
      "Ġeat": 3592,
      "Ġhalf": 3593,
      "Ġiter": 3594,
      "unn": 3595,
      "ĠMe": 3596,
      "ĠMany": 3597,
      "Ġplt": 3598,
      "irection": 3599,
      "Ġcreative": 3600,
      "Ġbelieved": 3601,
      "idden": 3602,
      "Ġprefer": 3603,
      "Ġbatter": 3604,
      "book": 3605,
      "Ġdimens": 3606,
      "Ġthird": 3607,
      "Ġhor": 3608,
      "Ġbeyond": 3609,
      "step": 3610,
      "ement": 3611,
      "ĠDef": 3612,
      "Ġweap": 3613,
      "Ġquite": 3614,
      "Ġthemselves": 3615,
      "Ġdeveloping": 3616,
      "Ġaccording": 3617,
      "Ġcosts": 3618,
      "Ġcontributions": 3619,
      "Ġorigin": 3620,
      "Ġroutine": 3621,
      "fer": 3622,
      "oint": 3623,
      "ĠðŁ": 3624,
      "Ġos": 3625,
      "ĠAct": 3626,
      "ĠCO": 3627,
      "add": 3628,
      "Ġplot": 3629,
      "Ġclaim": 3630,
      "Ġsoon": 3631,
      "ĠVis": 3632,
      "Ġrepresents": 3633,
      "Ġconnected": 3634,
      "Ġcauses": 3635,
      "Ġcaused": 3636,
      "Ġtaste": 3637,
      "!\"": 3638,
      ".,": 3639,
      "60": 3640,
      "cer": 3641,
      "gy": 3642,
      "iol": 3643,
      "mod": 3644,
      "nam": 3645,
      "pot": 3646,
      "enge": 3647,
      "Ġmother": 3648,
      "Ġlink": 3649,
      "iful": 3650,
      "ĠSQL": 3651,
      "Ġjoin": 3652,
      "Ġadded": 3653,
      "ĠVal": 3654,
      "Ġfinding": 3655,
      "Ġcentral": 3656,
      "Ġcontinues": 3657,
      "Ġerrors": 3658,
      "Ġbrowser": 3659,
      "Ġadvantages": 3660,
      "Ġchildren": 3661,
      "ĠEuropean": 3662,
      "Ġprotein": 3663,
      "lo": 3664,
      "atically": 3665,
      "Ġcamp": 3666,
      "Ġmis": 3667,
      "olid": 3668,
      "Ġstar": 3669,
      "Ġstock": 3670,
      "Ġatmos": 3671,
      "Ġteach": 3672,
      "icken": 3673,
      "Ġwanted": 3674,
      "Ġboard": 3675,
      "Ġsympt": 3676,
      "Ġvideos": 3677,
      "Ġmental": 3678,
      "Ġjourney": 3679,
      "iver": 3680,
      "yl": 3681,
      "reme": 3682,
      "ero": 3683,
      "atory": 3684,
      "Ġfoot": 3685,
      "Ġlost": 3686,
      "rie": 3687,
      "ĠMax": 3688,
      "Ġseg": 3689,
      "pped": 3690,
      "aged": 3691,
      "Ġunit": 3692,
      "Ġgenerated": 3693,
      "Ġdefined": 3694,
      "ĠComp": 3695,
      "Ġphilosophy": 3696,
      "Ġaspects": 3697,
      "ched": 3698,
      "urs": 3699,
      "Ġshared": 3700,
      "ĠNot": 3701,
      "Ġscore": 3702,
      "Ġindex": 3703,
      "Ġrelatively": 3704,
      "ception": 3705,
      "Ġskin": 3706,
      "Ġsupports": 3707,
      "Ġbreath": 3708,
      "Ġlinear": 3709,
      "Ġcritical": 3710,
      "Ġconsistent": 3711,
      "Ġcatch": 3712,
      "Ġfr": 3713,
      "Ġfresh": 3714,
      "ley": 3715,
      "rag": 3716,
      "idth": 3717,
      "Ġpros": 3718,
      "ĠSystem": 3719,
      "pth": 3720,
      "ĠOther": 3721,
      "agn": 3722,
      "Ġserve": 3723,
      "Ġactual": 3724,
      "Ġoffice": 3725,
      "Ġclassical": 3726,
      "Ġparticles": 3727,
      "Ġstatement": 3728,
      "Ġfamous": 3729,
      "Ġbroad": 3730,
      "ĠGPU": 3731,
      "Ġpiece": 3732,
      "ĠDisc": 3733,
      "Ġexplanation": 3734,
      "99": 3735,
      "ball": 3736,
      "body": 3737,
      "oke": 3738,
      "itary": 3739,
      "Ġwarm": 3740,
      "ĠAm": 3741,
      "plot": 3742,
      "Ġmap": 3743,
      "Ġrot": 3744,
      "Ġgeneration": 3745,
      "plications": 3746,
      "Ġregion": 3747,
      "Ġregulations": 3748,
      "Cl": 3749,
      "ET": 3750,
      "gram": 3751,
      "att": 3752,
      "atio": 3753,
      "Ġcast": 3754,
      "Ġbill": 3755,
      "Ġdirection": 3756,
      "Ġhun": 3757,
      "cean": 3758,
      "ster": 3759,
      "acing": 3760,
      "ĠOut": 3761,
      "Ġcompre": 3762,
      "ĠJapan": 3763,
      "Ġadding": 3764,
      "ĠKing": 3765,
      "Ġtechnique": 3766,
      "Ġcommunicate": 3767,
      "Ġvisit": 3768,
      "Ġsituations": 3769,
      "Ġswitches": 3770,
      "Ġseparate": 3771,
      "Ġspecifically": 3772,
      "known": 3773,
      "14": 3774,
      "ua": 3775,
      "uff": 3776,
      "wh": 3777,
      "orage": 3778,
      "Ġop": 3779,
      "Ġmiddle": 3780,
      "ctors": 3781,
      "used": 3782,
      "Ġbegan": 3783,
      "ĠAv": 3784,
      "ĠAut": 3785,
      "amples": 3786,
      "ĠPract": 3787,
      "ĠUlt": 3788,
      "Ġapply": 3789,
      "Ġtechnical": 3790,
      "ocket": 3791,
      "Ġextract": 3792,
      "Ġrights": 3793,
      "ometry": 3794,
      "Ġur": 3795,
      "ĠMin": 3796,
      "ĠGit": 3797,
      "Ġcreation": 3798,
      "xture": 3799,
      "ensor": 3800,
      "Ġterminal": 3801,
      "Ġcapabilities": 3802,
      "Ġjobs": 3803,
      "Ġmoral": 3804,
      "Ġscene": 3805,
      "ĠGerman": 3806,
      "Ġmentioned": 3807,
      "ED": 3808,
      "Le": 3809,
      "Wh": 3810,
      "bra": 3811,
      "ris": 3812,
      "uzz": 3813,
      "Ġice": 3814,
      "Ġaw": 3815,
      "erv": 3816,
      "orch": 3817,
      "Ġwall": 3818,
      "Ġwrong": 3819,
      "Ġlate": 3820,
      "Ġrepl": 3821,
      "etimes": 3822,
      "ams": 3823,
      "Ġcondition": 3824,
      "unction": 3825,
      "ĠDr": 3826,
      "Ġplaces": 3827,
      "dule": 3828,
      "Ġcold": 3829,
      "Ġenter": 3830,
      "Ġswe": 3831,
      "SD": 3832,
      "illed": 3833,
      "idge": 3834,
      "rial": 3835,
      "osition": 3836,
      "Ġseems": 3837,
      "ightly": 3838,
      "Ġ=>": 3839,
      "ĠJust": 3840,
      "Ġextra": 3841,
      "Ġhealthcare": 3842,
      "Ġcontribute": 3843,
      "Ġfigure": 3844,
      "Ġvegetables": 3845,
      "Ġsymptoms": 3846,
      "\"]": 3847,
      "ned": 3848,
      "Ġcu": 3849,
      "Ġphen": 3850,
      "Ġmist": 3851,
      "Ġmicro": 3852,
      "alled": 3853,
      "Ġdial": 3854,
      "ille": 3855,
      "Ġ14": 3856,
      "illing": 3857,
      "ocr": 3858,
      "Ġtraffic": 3859,
      "order": 3860,
      "Ġphr": 3861,
      "Ġindepend": 3862,
      "Ġrelax": 3863,
      "Ġinstr": 3864,
      "Ġdefault": 3865,
      "Ġstudent": 3866,
      "Ġbehavi": 3867,
      "Ġmoving": 3868,
      "Ġphilosophical": 3869,
      "Ġdangerous": 3870,
      "70": 3871,
      "ae": 3872,
      "rm": 3873,
      "Ġsample": 3874,
      "Ġpair": 3875,
      "Ġfant": 3876,
      "Ġluck": 3877,
      "ĠTe": 3878,
      "ĠAcc": 3879,
      "Ġvill": 3880,
      "actions": 3881,
      "Ġemp": 3882,
      "Ġinsurance": 3883,
      "Ġpromote": 3884,
      "Ġbecomes": 3885,
      "26": 3886,
      "lor": 3887,
      "range": 3888,
      "Ġwatch": 3889,
      "Ġdf": 3890,
      "icing": 3891,
      "asc": 3892,
      "Ġforward": 3893,
      "Ġconver": 3894,
      "Ġconvert": 3895,
      "Ġalign": 3896,
      "Ġvast": 3897,
      "Ġrich": 3898,
      "ĠDon": 3899,
      "Ġspecified": 3900,
      "Ġunderlying": 3901,
      "Ġveh": 3902,
      "Ġcommands": 3903,
      "Ġpurch": 3904,
      "Ġdrag": 3905,
      "Ġneurons": 3906,
      "Ġacademic": 3907,
      "`,": 3908,
      "aper": 3909,
      "bi": 3910,
      "ners": 3911,
      "ony": 3912,
      "Ġsides": 3913,
      "ĠTra": 3914,
      "ĠII": 3915,
      "Ġconsole": 3916,
      "osure": 3917,
      "ĠGive": 3918,
      "ĠList": 3919,
      "Ġkn": 3920,
      "Ġtransition": 3921,
      "Ġpromot": 3922,
      "ync": 3923,
      "Ġstatistical": 3924,
      "Ġreleased": 3925,
      "rastructure": 3926,
      "Ġfundament": 3927,
      "Ġphenomen": 3928,
      "IN": 3929,
      "top": 3930,
      "Ġsty": 3931,
      "unning": 3932,
      "Ġviol": 3933,
      "Ġnear": 3934,
      "Ġcompil": 3935,
      "Ġinstance": 3936,
      "Ġimproving": 3937,
      "Ġinputs": 3938,
      "Ġlimits": 3939,
      "Ġfocused": 3940,
      "Ġglass": 3941,
      "Ġwebsites": 3942,
      "ĠPlay": 3943,
      "Ġremains": 3944,
      "Ġprimary": 3945,
      "allel": 3946,
      "Ġmixture": 3947,
      "ĠUltimately": 3948,
      "?\"": 3949,
      "TP": 3950,
      "hing": 3951,
      "vas": 3952,
      "orous": 3953,
      "roid": 3954,
      "Ġusage": 3955,
      "Ġexternal": 3956,
      "ĠMar": 3957,
      "ĠMark": 3958,
      "ĠFe": 3959,
      "ĠRoman": 3960,
      "ĠIntern": 3961,
      "Ġhelped": 3962,
      "Ġspell": 3963,
      "Ġvalu": 3964,
      "Ġattract": 3965,
      "Ġfilter": 3966,
      "Ġequip": 3967,
      "Ġstored": 3968,
      "Ġrecognition": 3969,
      ":**": 3970,
      "wise": 3971,
      "Ġvert": 3972,
      "itch": 3973,
      "Ġwa": 3974,
      "Ġmit": 3975,
      "Ġtomat": 3976,
      "Ġreward": 3977,
      "Ġbelow": 3978,
      "ĠSw": 3979,
      "Ġexch": 3980,
      "essage": 3981,
      "ried": 3982,
      "Ġnotes": 3983,
      "ands": 3984,
      "ĠLa": 3985,
      "Ġadvance": 3986,
      "Ġclasses": 3987,
      "Ġvegan": 3988,
      "box": 3989,
      "Ġchallenge": 3990,
      "rency": 3991,
      "Ġorganizations": 3992,
      "Ġscenari": 3993,
      "Ġeye": 3994,
      "Ġpieces": 3995,
      "Ġhabits": 3996,
      "Ġatmosphere": 3997,
      "Ġcomprehens": 3998,
      "100": 3999,
      "OP": 4000,
      "cm": 4001,
      "ufact": 4002,
      "Ġtour": 4003,
      "reg": 4004,
      "rest": 4005,
      "Ġwin": 4006,
      "Ġfail": 4007,
      "etime": 4008,
      "irm": 4009,
      "though": 4010,
      "Ġcompare": 4011,
      "Ġresource": 4012,
      "Ġappre": 4013,
      "Ġstrings": 4014,
      "Ġcover": 4015,
      "ername": 4016,
      "Ġengage": 4017,
      "Ġcapable": 4018,
      "poses": 4019,
      "Ġrepresentation": 4020,
      "Ġchannel": 4021,
      "Ġbowl": 4022,
      "iliar": 4023,
      "aks": 4024,
      "hood": 4025,
      "son": 4026,
      "Ġtrou": 4027,
      "Ġcooking": 4028,
      "itc": 4029,
      "Ġine": 4030,
      "arr": 4031,
      "imal": 4032,
      "iding": 4033,
      "iring": 4034,
      "ums": 4035,
      "ĠPol": 4036,
      "Ġseason": 4037,
      "ĠBob": 4038,
      "inecraft": 4039,
      "ĠGra": 4040,
      "Ġcontact": 4041,
      "cont": 4042,
      "Ġdetail": 4043,
      "Ġofficial": 4044,
      "Ġallowed": 4045,
      "Ġinfrastructure": 4046,
      "Ġfilled": 4047,
      "Ġbias": 4048,
      "forcement": 4049,
      "Ġcrucial": 4050,
      "ny": 4051,
      "Ġax": 4052,
      "hest": 4053,
      "atives": 4054,
      "Ġfalse": 4055,
      "Ġmiss": 4056,
      "Ġble": 4057,
      "Ġlic": 4058,
      "Ġitem": 4059,
      "Ġconduct": 4060,
      "istry": 4061,
      "ĠHis": 4062,
      "Ġ17": 4063,
      "Ġsyn": 4064,
      "Ġarm": 4065,
      "Ġhowever": 4066,
      "Ġtruth": 4067,
      "Ġsimulation": 4068,
      "Ġlearned": 4069,
      "Ġextreme": 4070,
      "Ġperspective": 4071,
      "ield": 4072,
      "friendly": 4073,
      "pass": 4074,
      "Ġking": 4075,
      "anish": 4076,
      "Ġdivid": 4077,
      "Ġreb": 4078,
      "Ġstorage": 4079,
      "ĠCle": 4080,
      "irl": 4081,
      "sem": 4082,
      "Ġhear": 4083,
      "ĠPet": 4084,
      "Ġresol": 4085,
      "Ġunc": 4086,
      "Ġinstructions": 4087,
      "Ġaccessible": 4088,
      "Ġpractical": 4089,
      "Ġtook": 4090,
      "Ġcultures": 4091,
      "Ġinteractions": 4092,
      "Ġprobability": 4093,
      "Ġconversation": 4094,
      "Ġsou": 4095,
      "Ġdu": 4096,
      "rol": 4097,
      "Ġforces": 4098,
      "elines": 4099,
      "unk": 4100,
      "Ġ25": 4101,
      "Ġcontrast": 4102,
      "ibilities": 4103,
      "Ġbutton": 4104,
      "Ġsettings": 4105,
      "Ġfunctional": 4106,
      "Ġplayed": 4107,
      "ĠChoose": 4108,
      "Ġexpression": 4109,
      "Ġconstruct": 4110,
      "strict": 4111,
      "Ġengineering": 4112,
      "Ġautomatically": 4113,
      "Ġappreci": 4114,
      "Th": 4115,
      "ok": 4116,
      "spe": 4117,
      "orge": 4118,
      "chol": 4119,
      "amb": 4120,
      "ĠMed": 4121,
      "ĠDuring": 4122,
      "Ġund": 4123,
      "Ġassistant": 4124,
      "Ġvision": 4125,
      "Ġeconomy": 4126,
      "Ġediting": 4127,
      "Ġcausing": 4128,
      "holders": 4129,
      "Ġelectricity": 4130,
      "Ġswitch": 4131,
      "Ġbeautiful": 4132,
      "[\"": 4133,
      "write": 4134,
      "Ġir": 4135,
      "Ġsus": 4136,
      "itter": 4137,
      "Ġmal": 4138,
      "Ġrestrict": 4139,
      "Ġgives": 4140,
      "Ġord": 4141,
      "osen": 4142,
      "ĠDiff": 4143,
      "ĠOff": 4144,
      "ĠUp": 4145,
      "Ġpepper": 4146,
      "Ġsignals": 4147,
      "Ġrefer": 4148,
      "Ġmember": 4149,
      "Ġbiases": 4150,
      "Ġoptimize": 4151,
      "Ġinvestment": 4152,
      "Ġestablished": 4153,
      "Ġsatis": 4154,
      "Ġmaximum": 4155,
      "Ġcomfortable": 4156,
      "EN": 4157,
      "pic": 4158,
      "rror": 4159,
      "ugg": 4160,
      "estern": 4161,
      "Ġbrief": 4162,
      "icon": 4163,
      "Ġhar": 4164,
      "Ġstd": 4165,
      "Ġstars": 4166,
      "ulated": 4167,
      "ĠSk": 4168,
      "kend": 4169,
      "Ġexh": 4170,
      "Ġalt": 4171,
      "uman": 4172,
      "rupt": 4173,
      "Ġ50": 4174,
      "ĠChrist": 4175,
      "Ġassist": 4176,
      "Ġflour": 4177,
      "Ġshell": 4178,
      "Ġsometimes": 4179,
      "ossible": 4180,
      "string": 4181,
      "Ġarguments": 4182,
      "Ġesc": 4183,
      "Ġhypot": 4184,
      "Ġmilk": 4185,
      "Ġmilitary": 4186,
      "Ġblockchain": 4187,
      "Ġlatest": 4188,
      "Ġdisease": 4189,
      "21": 4190,
      "List": 4191,
      "td": 4192,
      "ying": 4193,
      "Ġvel": 4194,
      "Ġtouch": 4195,
      "erve": 4196,
      "Ġbird": 4197,
      "Ġrelease": 4198,
      "ulating": 4199,
      "Ġchat": 4200,
      "Ġchicken": 4201,
      "Ġrule": 4202,
      "Ġgoes": 4203,
      "ĠStud": 4204,
      "Ġreliable": 4205,
      "Ġcoord": 4206,
      "Ġcorresp": 4207,
      "inese": 4208,
      "Ġreading": 4209,
      "Ġbreed": 4210,
      "Ġpassed": 4211,
      "Ġcorrectly": 4212,
      "Ġconsumption": 4213,
      "Ġexpected": 4214,
      "Ġinnovation": 4215,
      "csv": 4216,
      "Ġangle": 4217,
      "Ġschedule": 4218,
      "Ġapproximately": 4219,
      "Ġcamera": 4220,
      "ĠPractice": 4221,
      "vest": 4222,
      "Ġsite": 4223,
      "Ġbul": 4224,
      "ĠWould": 4225,
      "Ġanyone": 4226,
      "Ġoutline": 4227,
      "ublic": 4228,
      "Ġindic": 4229,
      "ĠChinese": 4230,
      "Ġimproved": 4231,
      "Ġhands": 4232,
      "Ġcommunities": 4233,
      "Ġcapac": 4234,
      "Ġcapital": 4235,
      "Ġresearc": 4236,
      "Ġmoves": 4237,
      "points": 4238,
      "Ġunivers": 4239,
      "Ġanalyze": 4240,
      "Ġpowers": 4241,
      "Ġnucle": 4242,
      "Pr": 4243,
      "Pro": 4244,
      "ares": 4245,
      "iers": 4246,
      "onent": 4247,
      "oration": 4248,
      "Ġfans": 4249,
      "Ġdensity": 4250,
      "Ġeating": 4251,
      "ĠSat": 4252,
      "Ġvac": 4253,
      "ĠBoth": 4254,
      "Ġenh": 4255,
      "ĠEU": 4256,
      "ĠOur": 4257,
      "Ġcompat": 4258,
      "Ġmanner": 4259,
      "ifications": 4260,
      "Ġapplied": 4261,
      "Ġpoem": 4262,
      "rown": 4263,
      "tenance": 4264,
      "Ġremov": 4265,
      "Ġfactor": 4266,
      "Ġmetal": 4267,
      "iveness": 4268,
      "Ġachieved": 4269,
      "ĠDoes": 4270,
      "Ġstatus": 4271,
      "ĠArt": 4272,
      "Ġdidn": 4273,
      "Ġregularly": 4274,
      "Ġcompletely": 4275,
      "Ġreactions": 4276,
      "ĠApple": 4277,
      "Ġestablish": 4278,
      "Ġbottom": 4279,
      "Ġdouble": 4280,
      "ĠAccording": 4281,
      "Name": 4282,
      "itize": 4283,
      "Ġbac": 4284,
      "Ġstable": 4285,
      "Ġexcept": 4286,
      "ĠWhere": 4287,
      "Ġsuff": 4288,
      "Ġshown": 4289,
      "Ġpeace": 4290,
      "Ġlargest": 4291,
      "Ġruns": 4292,
      "Ġhumanity": 4293,
      "Ġapproaches": 4294,
      "Ġmuscle": 4295,
      "Ġbright": 4296,
      "Ġdescribed": 4297,
      "Ġmiles": 4298,
      "ĠDespite": 4299,
      "Ġguidance": 4300,
      "Ġeducation": 4301,
      "Ġinfluenced": 4302,
      "UI": 4303,
      "des": 4304,
      "pow": 4305,
      "Ġtalk": 4306,
      "Ġtalking": 4307,
      "iny": 4308,
      "Ġmountain": 4309,
      "ĠTest": 4310,
      "olf": 4311,
      "Ġdev": 4312,
      "Ġvia": 4313,
      "ĠWill": 4314,
      "agraph": 4315,
      "Ġcredit": 4316,
      "ĠWho": 4317,
      "Ġtrade": 4318,
      "Ġparticip": 4319,
      "Ġpurposes": 4320,
      "Ġslightly": 4321,
      "Ġanimation": 4322,
      "Ġeventually": 4323,
      "Ġrecognize": 4324,
      "Ġemotions": 4325,
      "Ġdistributed": 4326,
      "ĠDefine": 4327,
      "Ġequipment": 4328,
      "cles": 4329,
      "net": 4330,
      "Ġtables": 4331,
      "input": 4332,
      "ercial": 4333,
      "Ġcame": 4334,
      "iced": 4335,
      "ĠHer": 4336,
      "Ġimplications": 4337,
      "ellow": 4338,
      "Ġcontract": 4339,
      "Ġclim": 4340,
      "Ġmanufact": 4341,
      "Ġspecify": 4342,
      "Ġmyself": 4343,
      "Ġinterf": 4344,
      "Ġtransfer": 4345,
      "Ġ+=": 4346,
      "Ġparallel": 4347,
      "Ġconcent": 4348,
      "Ġamounts": 4349,
      "Ġscientists": 4350,
      "Ġinternal": 4351,
      "Ġupdated": 4352,
      "Ġminimum": 4353,
      "Ġimmedi": 4354,
      "Ġheavy": 4355,
      "Ġnavigate": 4356,
      "Ġfundamental": 4357,
      "Ġvaluable": 4358,
      "RE": 4359,
      "lay": 4360,
      "more": 4361,
      "most": 4362,
      "ped": 4363,
      "onds": 4364,
      "Ġcra": 4365,
      "Ġcos": 4366,
      "Ġcele": 4367,
      "orrow": 4368,
      "ene": 4369,
      "Ġfat": 4370,
      "Ġmob": 4371,
      "Ġhat": 4372,
      "omb": 4373,
      "ĠTV": 4374,
      "Ġgar": 4375,
      "ided": 4376,
      "ĠAg": 4377,
      "section": 4378,
      "Ġshows": 4379,
      "Ġcompar": 4380,
      "Ġcred": 4381,
      "Ġcloud": 4382,
      "Ġrecent": 4383,
      "Ġsauce": 4384,
      "Ġplanning": 4385,
      "Ġtests": 4386,
      "Ġhyd": 4387,
      "Ġlogic": 4388,
      "Ġtriangle": 4389,
      "Ġcriter": 4390,
      "ĠâĪ": 4391,
      "untu": 4392,
      "affe": 4393,
      "Ex": 4394,
      "NA": 4395,
      "making": 4396,
      "where": 4397,
      "Ġid": 4398,
      "Ġsem": 4399,
      "Ġsold": 4400,
      "Ġpen": 4401,
      "Ġfing": 4402,
      "Ġbinary": 4403,
      "Ġhour": 4404,
      "Ġrev": 4405,
      "vere": 4406,
      "Ġgod": 4407,
      "abet": 4408,
      "Ġ13": 4409,
      "Ġwee": 4410,
      "Ġfeet": 4411,
      "Ġ||": 4412,
      "Ġdeveloper": 4413,
      "Ġformal": 4414,
      "hess": 4415,
      "Ġmatrix": 4416,
      "Ġsolid": 4417,
      "Ġgradu": 4418,
      "Ġexpensive": 4419,
      "Ġstudies": 4420,
      "Ġcarry": 4421,
      "Ġready": 4422,
      "Ġtempl": 4423,
      "Ġcontainer": 4424,
      "Ġbenefit": 4425,
      "ĠĠĠĠĠĠĠĠĠĠĠĠĠĠĠĠĠĠĠĠĠĠĠĠĠĠĠĠĠĠĠĠ": 4426,
      "Ġefficiently": 4427,
      "Ġsummar": 4428,
      "Ġcircle": 4429,
      "Ġreceived": 4430,
      "going": 4431,
      "include": 4432,
      "Ġspirit": 4433,
      "200": 4434,
      "45": 4435,
      "ino": 4436,
      "hel": 4437,
      "ened": 4438,
      "Ġfuel": 4439,
      "Ġban": 4440,
      "asure": 4441,
      "Ġrevolution": 4442,
      "Ġgiving": 4443,
      "oll": 4444,
      "ĠTheir": 4445,
      "Ġhair": 4446,
      "Ġnothing": 4447,
      "Ġclick": 4448,
      "Ġthemes": 4449,
      "Ġassume": 4450,
      "Ġblocks": 4451,
      "Ġclassic": 4452,
      "Ġletters": 4453,
      "Ġprotection": 4454,
      "Ġestimate": 4455,
      "roduction": 4456,
      "Ġmole": 4457,
      "imensional": 4458,
      "Ġhabit": 4459,
      "Ġsyntax": 4460,
      "Ġutil": 4461,
      "fitting": 4462,
      "='": 4463,
      "fra": 4464,
      "hell": 4465,
      "eral": 4466,
      "eration": 4467,
      "icking": 4468,
      "Ġhidden": 4469,
      "Ġcoming": 4470,
      "Ġleaves": 4471,
      "Ġunits": 4472,
      "Ġqual": 4473,
      "Ġgets": 4474,
      "Ġideal": 4475,
      "Ġlapt": 4476,
      "Ġ2023": 4477,
      "ĠExample": 4478,
      "Ġensuring": 4479,
      "Ġocc": 4480,
      "Ġinternational": 4481,
      "ĠSpanish": 4482,
      "Ġhighest": 4483,
      "Ġprompts": 4484,
      "Ġnormalization": 4485,
      "Ġchords": 4486,
      "ATE": 4487,
      "Ġabsor": 4488,
      "Ġgrammar": 4489,
      ".)": 4490,
      "18": 4491,
      "AS": 4492,
      "dimensional": 4493,
      "size": 4494,
      "Ġcm": 4495,
      "Ġpet": 4496,
      "Ġpush": 4497,
      "ingu": 4498,
      "Ġmerg": 4499,
      "Ġbound": 4500,
      "Ġtoken": 4501,
      "Ġnodes": 4502,
      "ils": 4503,
      "Ġstra": 4504,
      "ĠSal": 4505,
      "ĠCent": 4506,
      "abel": 4507,
      "Ġvoc": 4508,
      "Ġchosen": 4509,
      "Ġupl": 4510,
      "ĠGu": 4511,
      "Ġovercome": 4512,
      "Ġflavor": 4513,
      "Ġcoff": 4514,
      "ĠUnion": 4515,
      "Ġengaging": 4516,
      "Ġrecommendations": 4517,
      "Ġcris": 4518,
      "Ġanimal": 4519,
      "Ġoptimization": 4520,
      "ĠLearning": 4521,
      "Ġmaintaining": 4522,
      "Ġtrees": 4523,
      "Ġviews": 4524,
      "ĠInstead": 4525,
      "Ġsongs": 4526,
      "Ġreceive": 4527,
      "Ġmenu": 4528,
      "Ġsupplies": 4529,
      "Ġweapons": 4530,
      "Ġstyles": 4531,
      "PU": 4532,
      "lib": 4533,
      "overy": 4534,
      "rt": 4535,
      "work": 4536,
      "itiz": 4537,
      "Ġple": 4538,
      "Ġpict": 4539,
      "Ġfan": 4540,
      "Ġleave": 4541,
      "Ġenable": 4542,
      "Ġimpossible": 4543,
      "Ġtend": 4544,
      "Ġclar": 4545,
      "ĠĠĠĠĠĠĠĠĠ": 4546,
      "conf": 4547,
      "Ġinvent": 4548,
      "Ġfoundation": 4549,
      "Ġdetermined": 4550,
      "poon": 4551,
      "weight": 4552,
      "Ġsustainable": 4553,
      "Ġfantasy": 4554,
      "25": 4555,
      "Error": 4556,
      "SC": 4557,
      "free": 4558,
      "Ġ]": 4559,
      "Ġtut": 4560,
      "Ġspl": 4561,
      "erate": 4562,
      "Ġwalking": 4563,
      "Ġgather": 4564,
      "Ġstories": 4565,
      "Ġchance": 4566,
      "ĠDet": 4567,
      "ĠGal": 4568,
      "agon": 4569,
      "Ġscre": 4570,
      "Ġrap": 4571,
      "Ġattribut": 4572,
      "Ġflat": 4573,
      "ocker": 4574,
      "Ġseek": 4575,
      "Ġpopulation": 4576,
      "Ġdiscover": 4577,
      "ĠWeb": 4578,
      "Ġmachines": 4579,
      "Ġasked": 4580,
      "Ġpresence": 4581,
      "Ġauthentication": 4582,
      "Ġcoffee": 4583,
      "den": 4584,
      "inst": 4585,
      "onna": 4586,
      "Ġsil": 4587,
      "Ġoven": 4588,
      "Ġfelt": 4589,
      "Ġmir": 4590,
      "Ġburn": 4591,
      "Ġhom": 4592,
      "unge": 4593,
      "ocity": 4594,
      "ocument": 4595,
      "ĠLook": 4596,
      "Ġdoor": 4597,
      "ĠNetw": 4598,
      "Ġphase": 4599,
      "Ġagent": 4600,
      "ĠReact": 4601,
      "Ġchanged": 4602,
      "Ġconcise": 4603,
      "Ġinfluential": 4604,
      "Ġrisks": 4605,
      "Ġcyl": 4606,
      "Ġframe": 4607,
      "ĠBlue": 4608,
      "Ġmonths": 4609,
      "Ġpsychology": 4610,
      "Ġdegree": 4611,
      "Ġelectrical": 4612,
      "xygen": 4613,
      "':": 4614,
      "OR": 4615,
      "iant": 4616,
      "life": 4617,
      "nal": 4618,
      "âł": 4619,
      "Ġer": 4620,
      "Ġtact": 4621,
      "Ġtone": 4622,
      "Ġchess": 4623,
      "Ġpy": 4624,
      "ether": 4625,
      "gebra": 4626,
      "Ġsugar": 4627,
      "ibly": 4628,
      "ffect": 4629,
      "Ġkil": 4630,
      "Ġtele": 4631,
      "Ġkeys": 4632,
      "Ġservers": 4633,
      "Ġinstalled": 4634,
      "plication": 4635,
      "Ġmaintenance": 4636,
      "ĠUni": 4637,
      "Ġfeelings": 4638,
      "Ġdelicious": 4639,
      "Ġphilosop": 4640,
      "Ġsensitive": 4641,
      "Ġobserv": 4642,
      "Ġinspired": 4643,
      "Ġdynamic": 4644,
      "ocolate": 4645,
      "ĠGeorge": 4646,
      "Ġappearance": 4647,
      "Data": 4648,
      "med": 4649,
      "note": 4650,
      "Ġign": 4651,
      "inf": 4652,
      "rees": 4653,
      "Ġsorry": 4654,
      "Ġcou": 4655,
      "Ġcounter": 4656,
      "ĠAR": 4657,
      "ĠSm": 4658,
      "Ġmeat": 4659,
      "Ġmeant": 4660,
      "ĠForm": 4661,
      "ĠThrough": 4662,
      "ĠLua": 4663,
      "Ġadvert": 4664,
      "ults": 4665,
      "Ġmodified": 4666,
      "Ġnumpy": 4667,
      "Ġobtain": 4668,
      "Ġdefe": 4669,
      "Ġvectors": 4670,
      "Ġdiscovered": 4671,
      "Ġfreed": 4672,
      "ĠInstall": 4673,
      "Ġemployees": 4674,
      "Ġexactly": 4675,
      "Ġreligious": 4676,
      "Ġexchange": 4677,
      "90": 4678,
      "De": 4679,
      "oom": 4680,
      "zing": 4681,
      "inner": 4682,
      "Ġgirl": 4683,
      "eli": 4684,
      "Ġasking": 4685,
      "rier": 4686,
      "ĠPerson": 4687,
      "Ġwealth": 4688,
      "Ġoverview": 4689,
      "Ġtyping": 4690,
      "Ġleads": 4691,
      "Ġthoughts": 4692,
      "Ġessay": 4693,
      "Ġweights": 4694,
      "Ġupdates": 4695,
      "Ġphotos": 4696,
      "Ġprimarily": 4697,
      "Ġemotional": 4698,
      "Ġbrand": 4699,
      "Ġcollege": 4700,
      "OM": 4701,
      "sum": 4702,
      "à±": 4703,
      "Ġ][": 4704,
      "Ġfavor": 4705,
      "Ġinher": 4706,
      "Ġdry": 4707,
      "aracter": 4708,
      "ĠID": 4709,
      "Ġproof": 4710,
      "aby": 4711,
      "Ġheard": 4712,
      "ĠMach": 4713,
      "ĠMinecraft": 4714,
      "ĠFind": 4715,
      "ĠEconom": 4716,
      "resident": 4717,
      "ĠRick": 4718,
      "ague": 4719,
      "Ġmanager": 4720,
      "Ġ40": 4721,
      "Ġinsights": 4722,
      "Ġargue": 4723,
      "Ġfasting": 4724,
      "arbage": 4725,
      "Ġbecoming": 4726,
      "Ġelectronic": 4727,
      "Ġexpertise": 4728,
      "Ġenemies": 4729,
      "Ġbehaviors": 4730,
      "FT": 4731,
      "rate": 4732,
      "Ġden": 4733,
      "icies": 4734,
      "rops": 4735,
      "ĠType": 4736,
      "Ġgaming": 4737,
      "ĠApp": 4738,
      "ĠAlex": 4739,
      "ĠSpe": 4740,
      "que": 4741,
      "Ġvibr": 4742,
      "rive": 4743,
      "ĠHigh": 4744,
      "Ġmeal": 4745,
      "ĠEth": 4746,
      "ĠLim": 4747,
      "Ġincom": 4748,
      "ously": 4749,
      "Ġfolder": 4750,
      "Ġexperts": 4751,
      "Ġfollowed": 4752,
      "Ġsolving": 4753,
      "Ġsaw": 4754,
      "Ġretrie": 4755,
      "oyal": 4756,
      "Ġopening": 4757,
      "Ġexposure": 4758,
      "type": 4759,
      "Ġfocuses": 4760,
      "Ġlayout": 4761,
      "Ġestim": 4762,
      "Ġsymmet": 4763,
      "vantages": 4764,
      "Ġmeaningful": 4765,
      "Ġolder": 4766,
      "json": 4767,
      "Ġmotion": 4768,
      "ĠDesign": 4769,
      "Ġintroduction": 4770,
      "Ġdocumentation": 4771,
      "Ġopportunity": 4772,
      "Ġdreams": 4773,
      "Ġreviews": 4774,
      "Ġsurrounding": 4775,
      "Ġcomprehensive": 4776,
      "Ġcelebr": 4777,
      "\"\"": 4778,
      "AL": 4779,
      "Your": 4780,
      "ban": 4781,
      "iot": 4782,
      "tem": 4783,
      "uber": 4784,
      "Ġtab": 4785,
      "Ġtru": 4786,
      "erry": 4787,
      "atoes": 4788,
      "Ġgard": 4789,
      "Ġongoing": 4790,
      "odies": 4791,
      "umin": 4792,
      "ĠDi": 4793,
      "Ġclos": 4794,
      "Ġcommercial": 4795,
      "ĠUnder": 4796,
      "ĠURL": 4797,
      "llent": 4798,
      "rought": 4799,
      "Ġparagraph": 4800,
      "Ġsuggests": 4801,
      "Ġmoon": 4802,
      "Ġharmful": 4803,
      "Ġfrequency": 4804,
      "Ġevolved": 4805,
      "Ġshapes": 4806,
      "Ġmerge": 4807,
      "ĠJapanese": 4808,
      "Ġtutorial": 4809,
      "TE": 4810,
      "ky": 4811,
      "mers": 4812,
      "press": 4813,
      "sure": 4814,
      "tra": 4815,
      "Ġri": 4816,
      "Ġwent": 4817,
      "Ġpig": 4818,
      "Ġoxygen": 4819,
      "Ġbacter": 4820,
      "Ġdwar": 4821,
      "Ġlooks": 4822,
      "ĠTime": 4823,
      "Ġgarbage": 4824,
      "cel": 4825,
      "ads": 4826,
      "Ġvoid": 4827,
      "illa": 4828,
      "ĠLED": 4829,
      "ĠInf": 4830,
      "Ġknew": 4831,
      "Ġteas": 4832,
      "Ġoutl": 4833,
      "Ġserious": 4834,
      "Ġworkout": 4835,
      "Ġpoor": 4836,
      "pha": 4837,
      "Ġassess": 4838,
      "Ġdecre": 4839,
      "Ġpolicies": 4840,
      "ĠPros": 4841,
      "Ġextension": 4842,
      "Ġdiverse": 4843,
      "Ġ80": 4844,
      "Ġimpacts": 4845,
      "ecause": 4846,
      "Ġversat": 4847,
      "Ġstatic": 4848,
      "Ġprofession": 4849,
      "Ġexperienced": 4850,
      "Ġsubjective": 4851,
      "Ġsurvive": 4852,
      "Ġdomain": 4853,
      "ĠFrance": 4854,
      "Ġvelocity": 4855,
      "Ġrapid": 4856,
      "can": 4857,
      "df": 4858,
      "sol": 4859,
      "ta": 4860,
      "ĠÂ": 4861,
      "inem": 4862,
      "Ġcab": 4863,
      "Ġcub": 4864,
      "icks": 4865,
      "Ġnice": 4866,
      "Ġalgebra": 4867,
      "ĠHave": 4868,
      "Ġhero": 4869,
      "ĠPri": 4870,
      "Ġchocolate": 4871,
      "osite": 4872,
      "indow": 4873,
      "Ġevolution": 4874,
      "Ġroots": 4875,
      "Ġspaces": 4876,
      "Ġadds": 4877,
      "Ġemissions": 4878,
      "Ġprogression": 4879,
      "Ġworkers": 4880,
      "Ġinstit": 4881,
      "Ġinfl": 4882,
      "Ġremote": 4883,
      "client": 4884,
      "Ġ});": 4885,
      "Ġconsidering": 4886,
      "Ġconstra": 4887,
      "Ġenvironments": 4888,
      "Ġdiscr": 4889,
      "Ġgreatly": 4890,
      "2023": 4891,
      "Ġoutputs": 4892,
      "point": 4893,
      "Ġlandsc": 4894,
      "Ġbeginning": 4895,
      "Ġpackages": 4896,
      "aborate": 4897,
      "print": 4898,
      "ĠCalcul": 4899,
      "Ġrolls": 4900,
      "Ġfruit": 4901,
      "Ġgarlic": 4902,
      "Feed": 4903,
      "Ġsell": 4904,
      "Ġmath": 4905,
      "arry": 4906,
      "Ġ[]": 4907,
      "ĠTrain": 4908,
      "idents": 4909,
      "Ġalien": 4910,
      "ades": 4911,
      "Ġvit": 4912,
      "Ġratio": 4913,
      "ĠElect": 4914,
      "Ġsoil": 4915,
      "ĠUb": 4916,
      "Ġparty": 4917,
      "Ġfunctionality": 4918,
      "ought": 4919,
      "Ġdecl": 4920,
      "Ġdistinct": 4921,
      "ĠRevolution": 4922,
      "Ġreduced": 4923,
      "ĠUnity": 4924,
      "Ġequival": 4925,
      "venue": 4926,
      "Ġedge": 4927,
      "Ġgrowing": 4928,
      "scale": 4929,
      "Ġteams": 4930,
      "Ġmagical": 4931,
      "Ġmechanism": 4932,
      "ĠAmerica": 4933,
      "Ġbrown": 4934,
      "Ġparameter": 4935,
      "Ġcircum": 4936,
      "augh": 4937,
      "ĠMaybe": 4938,
      "powered": 4939,
      "Ġupload": 4940,
      "En": 4941,
      "aign": 4942,
      "direct": 4943,
      "gal": 4944,
      "haps": 4945,
      "ls": 4946,
      "max": 4947,
      "ued": 4948,
      "Ġbur": 4949,
      "Ġrender": 4950,
      "usive": 4951,
      "etch": 4952,
      "rad": 4953,
      "Ġonto": 4954,
      "iforn": 4955,
      "ĠAnt": 4956,
      "ured": 4957,
      "Ġdepth": 4958,
      "ĠHel": 4959,
      "ĠPart": 4960,
      "Ġnoting": 4961,
      "Ġintended": 4962,
      "ĠRet": 4963,
      "ĠGame": 4964,
      "ogue": 4965,
      "Ġcompile": 4966,
      "Ġdiffer": 4967,
      "Ġbutter": 4968,
      "Ġprepare": 4969,
      "Ġproduced": 4970,
      "Ġreps": 4971,
      "Ġreply": 4972,
      "ifying": 4973,
      "Ġreferences": 4974,
      "ĠHey": 4975,
      "ĠDear": 4976,
      "Ġmonitor": 4977,
      "Ġconnections": 4978,
      "ashing": 4979,
      "Ġfamiliar": 4980,
      "Ġcyber": 4981,
      "Ġrestaur": 4982,
      "Ġfloat": 4983,
      "Ġbirds": 4984,
      "Ġultimately": 4985,
      "hetic": 4986,
      "Ġcampaign": 4987,
      "Ġopin": 4988,
      "affeine": 4989,
      "Ġcylinder": 4990,
      "64": 4991,
      "dis": 4992,
      "ded": 4993,
      "house": 4994,
      "Ġiron": 4995,
      "Ġcities": 4996,
      "Ġcogn": 4997,
      "Ġfly": 4998,
      "alysis": 4999,
      "Ġthick": 5000,
      "illet": 5001,
      "ĠId": 5002,
      "Ġstir": 5003,
      "ĠAf": 5004,
      "pty": 5005,
      "ĠMort": 5006,
      "Ġshop": 5007,
      "reshold": 5008,
      "ĠRep": 5009,
      "ĠOk": 5010,
      "Ġwaste": 5011,
      "Ġju": 5012,
      "connect": 5013,
      "Ġoffering": 5014,
      "Ġlisten": 5015,
      "Ġtranspare": 5016,
      "():": 5017,
      "Ġlights": 5018,
      "Ġguess": 5019,
      "odynam": 5020,
      "Ġpatient": 5021,
      "Ġextend": 5022,
      "Ġoperation": 5023,
      "Ġharder": 5024,
      "Ġcharacteristics": 5025,
      "Ġsignificance": 5026,
      "Ġimplementing": 5027,
      "Ġmovies": 5028,
      "Ġidentity": 5029,
      "ĠImpro": 5030,
      "Ġsecret": 5031,
      "ĠCaliforn": 5032,
      "ĠEmp": 5033,
      "Ġefforts": 5034,
      "Ġprioritize": 5035,
      "Ġperspectives": 5036,
      "Ġflexibility": 5037,
      "Ġphenomenon": 5038,
      "');": 5039,
      "RI": 5040,
      "bles": 5041,
      "rig": 5042,
      "ss": 5043,
      "uk": 5044,
      "Ġast": 5045,
      "Ġcraft": 5046,
      "Ġcitiz": 5047,
      "orter": 5048,
      "Ġmid": 5049,
      "Ġalone": 5050,
      "ĠPot": 5051,
      "Ġplastic": 5052,
      "ĠGl": 5053,
      "ĠLangu": 5054,
      "Ġcreativity": 5055,
      "Ġfear": 5056,
      "Ġupgra": 5057,
      "Ġraise": 5058,
      "Ġeconomics": 5059,
      "Ġcalculus": 5060,
      "ĠEnc": 5061,
      "ralized": 5062,
      "Ġpaid": 5063,
      "Ġgrid": 5064,
      "Ġdogs": 5065,
      "Ġsorted": 5066,
      "Ġoccurs": 5067,
      "Ġtreatment": 5068,
      "Ġreinforcement": 5069,
      "Ġresearchers": 5070,
      "ĠCalifornia": 5071,
      "17": 5072,
      "Int": 5073,
      "eper": 5074,
      "mut": 5075,
      "rant": 5076,
      "ugh": 5077,
      "Ã¼": 5078,
      "enn": 5079,
      "Ġpull": 5080,
      "Ġfo": 5081,
      "Ġtox": 5082,
      "ascript": 5083,
      "Ġly": 5084,
      "enty": 5085,
      "Ġnational": 5086,
      "Ġnested": 5087,
      "rab": 5088,
      "Ġstage": 5089,
      "ĠAM": 5090,
      "ĠAust": 5091,
      "umber": 5092,
      "Ġvar": 5093,
      "ighb": 5094,
      "Ġrig": 5095,
      "Ġrough": 5096,
      "Ġatom": 5097,
      "Ġwear": 5098,
      "ĠOh": 5099,
      "Ġincome": 5100,
      "Ġincred": 5101,
      "Ġdoctor": 5102,
      "Ġmodule": 5103,
      "avascript": 5104,
      "iented": 5105,
      "ressive": 5106,
      "Ġtail": 5107,
      "conds": 5108,
      "Ġsport": 5109,
      "Ġnews": 5110,
      "Ġprime": 5111,
      "Ġworked": 5112,
      "Ġobst": 5113,
      "othing": 5114,
      "entials": 5115,
      "Ġassign": 5116,
      "Ġassert": 5117,
      "Ġcurve": 5118,
      "Ġrealistic": 5119,
      "Ġimprovement": 5120,
      "Ġprotocol": 5121,
      "Ġparticle": 5122,
      "Ġcenturies": 5123,
      "Ġcombined": 5124,
      "Ġstatistics": 5125,
      "ĠArch": 5126,
      "Ġcareer": 5127,
      "ĠImplement": 5128,
      "Ġradio": 5129,
      "Ġradius": 5130,
      "Ġaccurately": 5131,
      "Ġstrengths": 5132,
      "Ġsuccessfully": 5133,
      "Ġsimpler": 5134,
      "onomic": 5135,
      "Ġcarefully": 5136,
      "55": 5137,
      "View": 5138,
      "cal": 5139,
      "pan": 5140,
      "||": 5141,
      "inate": 5142,
      "Ġcry": 5143,
      "itate": 5144,
      "Ġwave": 5145,
      "Ġpand": 5146,
      "array": 5147,
      "Ġhon": 5148,
      "otes": 5149,
      "Ġstability": 5150,
      "Ġconvent": 5151,
      "ĠCop": 5152,
      "quest": 5153,
      "Ġvan": 5154,
      "Ġleaving": 5155,
      "ĠBecause": 5156,
      "ĠRese": 5157,
      "Ġkid": 5158,
      "ĠNext": 5159,
      "ryption": 5160,
      "Ġquiet": 5161,
      "const": 5162,
      "ĠString": 5163,
      "Ġapps": 5164,
      "Ġstarts": 5165,
      "Ġdecide": 5166,
      "Ġseeking": 5167,
      "Ġvisible": 5168,
      "ÂłÂłÂł": 5169,
      "Ġprotected": 5170,
      "Ġzero": 5171,
      "Ġspecialized": 5172,
      "Ġmeeting": 5173,
      "Ġcooked": 5174,
      "Ġcontinued": 5175,
      "ĠRegular": 5176,
      "Ġinjury": 5177,
      "Ġweakness": 5178,
      "Ġadventure": 5179,
      "Ġexcellent": 5180,
      "unnel": 5181,
      "ĠDiscord": 5182,
      "Ġappreciate": 5183,
      "Ġbacteria": 5184,
      "ĠMorty": 5185,
      "65": 5186,
      "Line": 5187,
      "](": 5188,
      "])": 5189,
      "bing": 5190,
      "def": 5191,
      "frame": 5192,
      "run": 5193,
      "Ġtit": 5194,
      "eries": 5195,
      "Ġcert": 5196,
      "Ġwild": 5197,
      "Ġliqu": 5198,
      "Ġrenew": 5199,
      "Ġnative": 5200,
      "iling": 5201,
      "Ġstick": 5202,
      "ĠAb": 5203,
      "antic": 5204,
      "ĠWestern": 5205,
      "Ġchop": 5206,
      "Ġrh": 5207,
      "Ġshorter": 5208,
      "Ġresistance": 5209,
      "agers": 5210,
      "Ġunlike": 5211,
      "Ġpret": 5212,
      "Ġdish": 5213,
      "Ġpositions": 5214,
      "Ġsmell": 5215,
      "Ġcomputational": 5216,
      "onding": 5217,
      "Ġboot": 5218,
      "position": 5219,
      "Ġpersonalized": 5220,
      "Ġmechanical": 5221,
      "Ġmechanisms": 5222,
      "Ġtemperatures": 5223,
      "being": 5224,
      "Ġcivilization": 5225,
      "Ġdefinition": 5226,
      "Ġcollaboration": 5227,
      "Ġphrase": 5228,
      "Ġtomato": 5229,
      "ĠPeter": 5230,
      "ĠAfric": 5231,
      "ĠEmpire": 5232,
      "BA": 5233,
      "TI": 5234,
      "code": 5235,
      "ey": 5236,
      "uation": 5237,
      "Ġtall": 5238,
      "Ġtag": 5239,
      "itory": 5240,
      "ĠCPU": 5241,
      "Ġdeal": 5242,
      "antum": 5243,
      "ĠPo": 5244,
      "pping": 5245,
      "Ġ21": 5246,
      "Ġabst": 5247,
      "ĠOb": 5248,
      "formation": 5249,
      "ĠIts": 5250,
      "Ġoutcome": 5251,
      "rows": 5252,
      "ĠCanad": 5253,
      "Ġhighlight": 5254,
      "Ġskillet": 5255,
      "Ġcoop": 5256,
      "ĠRead": 5257,
      "comes": 5258,
      "ĠDeep": 5259,
      "Ġreader": 5260,
      "ĠOpenAI": 5261,
      "Ġfoods": 5262,
      "Ġhimself": 5263,
      "Ġstronger": 5264,
      "Ġsentences": 5265,
      "Ġsociet": 5266,
      "Ġbusinesses": 5267,
      "Ġindustries": 5268,
      "Ġremaining": 5269,
      "ĠGPT": 5270,
      "Ġminimal": 5271,
      "Ġminimize": 5272,
      "Ġforest": 5273,
      "Ġconstantly": 5274,
      "Ġevaluate": 5275,
      "Ġemergency": 5276,
      "Ġinterpretation": 5277,
      "Ġliterature": 5278,
      "Ġescape": 5279,
      "ĠUbuntu": 5280,
      "CD": 5281,
      "DP": 5282,
      "Frame": 5283,
      "SV": 5284,
      "pread": 5285,
      "Ġerg": 5286,
      "Ġcodes": 5287,
      "roy": 5288,
      "Ġrevenue": 5289,
      "iments": 5290,
      "Ġgave": 5291,
      "oles": 5292,
      "urrency": 5293,
      "ĠSun": 5294,
      "ĠHello": 5295,
      "orem": 5296,
      "Ġneighb": 5297,
      "ĠMag": 5298,
      "ills": 5299,
      "ĠFlu": 5300,
      "ĠGold": 5301,
      "ĠNational": 5302,
      "ĠNFT": 5303,
      "ruption": 5304,
      "ensions": 5305,
      "Ġempty": 5306,
      "Ġattend": 5307,
      "Ġrepair": 5308,
      "Ġplanets": 5309,
      "Ġbreaking": 5310,
      "Ġprinting": 5311,
      "Ġencourage": 5312,
      "Ġbiological": 5313,
      "Ġmathematic": 5314,
      "Ġstandards": 5315,
      "idespread": 5316,
      "Ġdocuments": 5317,
      "Ġ:=": 5318,
      "Ġopposite": 5319,
      "Ġperiods": 5320,
      "ĠIncre": 5321,
      "ĠGermany": 5322,
      "Ġbirth": 5323,
      "ĠAvoid": 5324,
      "Ġawait": 5325,
      "ocratic": 5326,
      "Ġsatisf": 5327,
      "Ġmobile": 5328,
      "Ġlyrics": 5329,
      "\">": 5330,
      "33": 5331,
      "count": 5332,
      "rices": 5333,
      "Ġtherm": 5334,
      "Ġschol": 5335,
      "Ġcake": 5336,
      "esh": 5337,
      "itational": 5338,
      "Ġwire": 5339,
      "Ġwidespread": 5340,
      "ancing": 5341,
      "Ġfem": 5342,
      "arge": 5343,
      "arter": 5344,
      "eds": 5345,
      "Ġlik": 5346,
      "Ġgal": 5347,
      "ĠSol": 5348,
      "Ġexcess": 5349,
      "Ġvict": 5350,
      "rients": 5351,
      "ĠWell": 5352,
      "ĠMore": 5353,
      "ĠMain": 5354,
      "ĠBen": 5355,
      "ĠLL": 5356,
      "ĠLaw": 5357,
      "Ġ24": 5358,
      "arest": 5359,
      "Ġacqu": 5360,
      "Ġjud": 5361,
      "ensus": 5362,
      "Ġtrig": 5363,
      "Ġpoison": 5364,
      "oves": 5365,
      "Ġassistance": 5366,
      "Ġdecent": 5367,
      "efore": 5368,
      "Ġpersonality": 5369,
      "Ġ...": 5370,
      "Ġdiam": 5371,
      "cribe": 5372,
      "Ġprobably": 5373,
      "Ġapartment": 5374,
      "ĠBritish": 5375,
      "Ġdimensions": 5376,
      "Ġhunting": 5377,
      "Ġstraight": 5378,
      "Ġfreedom": 5379,
      "ĠMachine": 5380,
      "Ġconstraints": 5381,
      "cast": 5382,
      "person": 5383,
      "sm": 5384,
      "Ġaid": 5385,
      "rete": 5386,
      "Ġson": 5387,
      "Ġsac": 5388,
      "eric": 5389,
      "atus": 5390,
      "Ġcoding": 5391,
      "orus": 5392,
      "Ġwiz": 5393,
      "Ġfict": 5394,
      "Ġfarm": 5395,
      "Ġmood": 5396,
      "Ġbread": 5397,
      "icated": 5398,
      "Ġyellow": 5399,
      "Ġreve": 5400,
      "amm": 5401,
      "Ġann": 5402,
      "ĠCSS": 5403,
      "Ġdeploy": 5404,
      "Ġdeeper": 5405,
      "Ġheld": 5406,
      "ĠPower": 5407,
      "ests": 5408,
      "Ġlep": 5409,
      "ĠBased": 5410,
      "ĠBefore": 5411,
      "Ġcontra": 5412,
      "ĠNorth": 5413,
      "ansion": 5414,
      "Ġhelping": 5415,
      "Ġdesk": 5416,
      "Ġdesire": 5417,
      "enses": 5418,
      "ĠJS": 5419,
      "Ġoverl": 5420,
      "Ġnumerous": 5421,
      "ishing": 5422,
      "Ġcalm": 5423,
      "Ġassets": 5424,
      "Ġsignature": 5425,
      "Ġcontrols": 5426,
      "Ġmonit": 5427,
      "Ġelimin": 5428,
      "Ġhappiness": 5429,
      "Ġstream": 5430,
      "process": 5431,
      "ĠSecond": 5432,
      "Ġvolt": 5433,
      "Ġbrother": 5434,
      "Ġcycle": 5435,
      "Ġbeginner": 5436,
      "ĠEngine": 5437,
      "ĠCommun": 5438,
      "Ġderiv": 5439,
      "Ġearthqu": 5440,
      "izza": 5441,
      "Ġpurchase": 5442,
      "Re": 5443,
      "].": 5444,
      "div": 5445,
      "mas": 5446,
      "mission": 5447,
      "pes": 5448,
      "uke": 5449,
      "writ": 5450,
      "Ġtur": 5451,
      "Ġcand": 5452,
      "Ġcars": 5453,
      "Ġcache": 5454,
      "Ġpun": 5455,
      "Ġmouth": 5456,
      "Ġband": 5457,
      "Ġlose": 5458,
      "images": 5459,
      "Ġprop": 5460,
      "amin": 5461,
      "Ġorbit": 5462,
      "ĠMult": 5463,
      "ocal": 5464,
      "ĠLight": 5465,
      "ĠNone": 5466,
      "Ġunable": 5467,
      "Ġoutcomes": 5468,
      "Ġevil": 5469,
      "ĠSte": 5470,
      "Ġstrange": 5471,
      "ĠVer": 5472,
      "pending": 5473,
      "Ġkeyword": 5474,
      "Ġgoods": 5475,
      "Ġobjective": 5476,
      "Ġfacts": 5477,
      "Ġleader": 5478,
      "ĠProt": 5479,
      "Ġengines": 5480,
      "Ġmeters": 5481,
      "Ġpublished": 5482,
      "Ġencryption": 5483,
      "ameter": 5484,
      "Ġaffected": 5485,
      "ĠGPS": 5486,
      "Ġexplanations": 5487,
      "Ġsatell": 5488,
      "Ġemphasizes": 5489,
      "LEM": 5490,
      "Ġsection": 5491,
      "Ġprecise": 5492,
      "year": 5493,
      "Ġbattery": 5494,
      "Ġindependent": 5495,
      "Ġtemplate": 5496,
      "Ġgalax": 5497,
      "NN": 5498,
      "fold": 5499,
      "gr": 5500,
      "gans": 5501,
      "iance": 5502,
      "tical": 5503,
      "Ġcaffeine": 5504,
      "itance": 5505,
      "Ġpure": 5506,
      "ĠSD": 5507,
      "ĠSub": 5508,
      "Ġdepart": 5509,
      "ĠWhe": 5510,
      "plan": 5511,
      "mental": 5512,
      "ĠMer": 5513,
      "Ġround": 5514,
      "action": 5515,
      "ĠLike": 5516,
      "ĠNP": 5517,
      "anging": 5518,
      "append": 5519,
      "Ġconsensus": 5520,
      "Ġtherefore": 5521,
      "current": 5522,
      "Ġflag": 5523,
      "Ġinformed": 5524,
      "Ġownership": 5525,
      "Ġclassification": 5526,
      "Ġmeditation": 5527,
      "Ġsurve": 5528,
      "Ġlaunch": 5529,
      "Ġsummer": 5530,
      "Ġsheet": 5531,
      "Ġencoura": 5532,
      "ĠLearn": 5533,
      "Ġtrip": 5534,
      "Ġgenetic": 5535,
      "Ġtrends": 5536,
      "prise": 5537,
      "Ġgravitational": 5538,
      "Ġfrequently": 5539,
      "Ġattempts": 5540,
      "minist": 5541,
      "Ġmelody": 5542,
      "Ġchoices": 5543,
      "Ġmanipulate": 5544,
      "Ġbillion": 5545,
      "Ġsweet": 5546,
      "Ġbackend": 5547,
      "Ġcriteria": 5548,
      "Ġmirror": 5549,
      "Ġtruly": 5550,
      "ĠIdent": 5551,
      "\";": 5552,
      "IM": 5553,
      "Path": 5554,
      "db": 5555,
      "mark": 5556,
      "such": 5557,
      "ugin": 5558,
      "|----------------": 5559,
      "Ġ)": 5560,
      "Ġille": 5561,
      "Ġfro": 5562,
      "Ġdiction": 5563,
      "Ġlo": 5564,
      "Ġlived": 5565,
      "uses": 5566,
      "Ġcanvas": 5567,
      "ĠSil": 5568,
      "iration": 5569,
      "Ġvs": 5570,
      "ĠDay": 5571,
      "Ġnotation": 5572,
      "Ġnotable": 5573,
      "Ġplans": 5574,
      "Ġplenty": 5575,
      "ĠGreen": 5576,
      "Ġresolution": 5577,
      "Ġscope": 5578,
      "Ġcream": 5579,
      "Ġincluded": 5580,
      "Ġinterview": 5581,
      "Ġrecip": 5582,
      "Ġprices": 5583,
      "Ġparties": 5584,
      "Ġregions": 5585,
      "Ġmatrices": 5586,
      "Ġartists": 5587,
      "Ġarticle": 5588,
      "Ġboost": 5589,
      "Ġstores": 5590,
      "Ġturning": 5591,
      "Ġintegration": 5592,
      "Ġfacing": 5593,
      "Ġbattle": 5594,
      "Ġobserved": 5595,
      "ĠQuantum": 5596,
      "cosystem": 5597,
      "Ġimmediately": 5598,
      "Ġequivalent": 5599,
      "Ġfictional": 5600,
      "\");": 5601,
      "24": 5602,
      "34": 5603,
      "II": 5604,
      "PL": 5605,
      "equ": 5606,
      "join": 5607,
      "main": 5608,
      "pace": 5609,
      "uate": 5610,
      "},": 5611,
      "ĉĠĠčĊ": 5612,
      "eras": 5613,
      "Ġwinter": 5614,
      "Ġtold": 5615,
      "Ġinse": 5616,
      "Ġecosystem": 5617,
      "Ġghost": 5618,
      "olute": 5619,
      "Ġonion": 5620,
      "ĠHuman": 5621,
      "ĠFocus": 5622,
      "Ġspend": 5623,
      "Ġgenerating": 5624,
      "Ġexploring": 5625,
      "Ġobjectives": 5626,
      "Ġpotatoes": 5627,
      "iences": 5628,
      "Ġcontroll": 5629,
      "Ġmedic": 5630,
      "Ġmemor": 5631,
      "Ġsupported": 5632,
      "Ġmuscles": 5633,
      "Ġelaborate": 5634,
      "Ġlesson": 5635,
      "Ġgreatest": 5636,
      "Ġaircraft": 5637,
      "Ġimplemented": 5638,
      "Ġanswers": 5639,
      "Ġafford": 5640,
      "Ġmarketing": 5641,
      "Ġcritic": 5642,
      "ĠAddress": 5643,
      "Ġradar": 5644,
      "Ġflowers": 5645,
      "Ġroute": 5646,
      "Ġpredictions": 5647,
      "Ġcompetition": 5648,
      "Ġmotivated": 5649,
      "ĠPeople": 5650,
      "Ġhoriz": 5651,
      "Ġcapacity": 5652,
      "Ġenhance": 5653,
      "Ġlaptop": 5654,
      "Ġcouple": 5655,
      "Ġgarden": 5656,
      "CE": 5657,
      "Im": 5658,
      "bed": 5659,
      "rs": 5660,
      "zer": 5661,
      "Ġaer": 5662,
      "Ġsand": 5663,
      "Ġwish": 5664,
      "Ġwidth": 5665,
      "Ġdie": 5666,
      "Ġdough": 5667,
      "Ġlabor": 5668,
      "Ġreput": 5669,
      "rable": 5670,
      "Ġasync": 5671,
      "Ġcomment": 5672,
      "Ġdep": 5673,
      "ĠPat": 5674,
      "Ġselection": 5675,
      "ĠStar": 5676,
      "Ġrecurs": 5677,
      "ĠChapter": 5678,
      "Ġtechnological": 5679,
      "Ġtransmit": 5680,
      "Ġcoverage": 5681,
      "ĠAny": 5682,
      "egin": 5683,
      "rosy": 5684,
      "ĠConnect": 5685,
      "Ġswim": 5686,
      "Ġinteraction": 5687,
      "Ġtried": 5688,
      "Ġvalidation": 5689,
      "Ġstaying": 5690,
      "Ġintroduced": 5691,
      "Ġdescriptions": 5692,
      "Ġlabel": 5693,
      "Ġsurvival": 5694,
      "Ġdegrees": 5695,
      "Ġcryptoc": 5696,
      "Ġtransportation": 5697,
      "Ġreplaced": 5698,
      "Ġinstrument": 5699,
      "Ġmitigate": 5700,
      "Ġharvest": 5701,
      "Ġgradually": 5702,
      "Ġcrisis": 5703,
      "Ġcircumst": 5704,
      "Ġergonomic": 5705,
      "Ġvoltage": 5706,
      "fare": 5707,
      "worth": 5708,
      "ãĤ": 5709,
      "Ġtunnel": 5710,
      "herent": 5711,
      "Ġcinem": 5712,
      "Ġearn": 5713,
      "Ġloved": 5714,
      "Ġreached": 5715,
      "ĠTy": 5716,
      "imals": 5717,
      "igation": 5718,
      "Ġprove": 5719,
      "Ġalmost": 5720,
      "ptic": 5721,
      "Ġchron": 5722,
      "Ġseconds": 5723,
      "Ġmeets": 5724,
      "ĠFurther": 5725,
      "ĠGiven": 5726,
      "ĠLat": 5727,
      "Ġmanaging": 5728,
      "Ġconsists": 5729,
      "Ġalloc": 5730,
      "Ġcolon": 5731,
      "Ġsettle": 5732,
      "Ġwants": 5733,
      "Ġrepos": 5734,
      "Ġjustice": 5735,
      "ernel": 5736,
      "ĠProcess": 5737,
      "Ġentertain": 5738,
      "Ġconsideration": 5739,
      "Ġdriving": 5740,
      "Ġoptimal": 5741,
      "ourses": 5742,
      "Ġstudying": 5743,
      "Ġpanels": 5744,
      "mitt": 5745,
      "Ġfixed": 5746,
      "Ġfruits": 5747,
      "Ġaccompl": 5748,
      "ĠVisit": 5749,
      "ĠTechn": 5750,
      "Ġscreens": 5751,
      "Ġtutorials": 5752,
      "Ġteaspoon": 5753,
      "Ġprofessionals": 5754,
      "Ġrhyth": 5755,
      "For": 5756,
      "HP": 5757,
      "ipl": 5758,
      "len": 5759,
      "message": 5760,
      "qrt": 5761,
      "sk": 5762,
      "oriented": 5763,
      "Ġwings": 5764,
      "Ġocean": 5765,
      "ana": 5766,
      "Ġbub": 5767,
      "Ġearl": 5768,
      "uster": 5769,
      "Ġisn": 5770,
      "ĠTur": 5771,
      "ĠText": 5772,
      "stood": 5773,
      "Ġproced": 5774,
      "ession": 5775,
      "Ġheap": 5776,
      "ĠFace": 5777,
      "Ġshall": 5778,
      "ĠRef": 5779,
      "Ġwilling": 5780,
      "Ġscr": 5781,
      "ĠState": 5782,
      "Ġsetup": 5783,
      "Ġexperiments": 5784,
      "ĠChina": 5785,
      "Ġlists": 5786,
      "Ġmatches": 5787,
      "pected": 5788,
      "Ġinfect": 5789,
      "Ġhandling": 5790,
      "Ġplane": 5791,
      "Ġ},": 5792,
      "Ġextensive": 5793,
      "Ġcarro": 5794,
      "Ġkeeping": 5795,
      "Ġmovements": 5796,
      "Ġlegs": 5797,
      "Ġmentors": 5798,
      "Stack": 5799,
      "Ġpanel": 5800,
      "Ġaccepted": 5801,
      "Ġentirely": 5802,
      "Ġlifest": 5803,
      "Ġcolumns": 5804,
      "Ġflexible": 5805,
      "Ġthreads": 5806,
      "Ġcuis": 5807,
      "Ġtrouble": 5808,
      "Ġremoving": 5809,
      "Ġweeks": 5810,
      "Ġjuice": 5811,
      "ĠLanguage": 5812,
      "Ġobstac": 5813,
      "ĠJSON": 5814,
      "47": 5815,
      "To": 5816,
      "dri": 5817,
      "live": 5818,
      "then": 5819,
      "vin": 5820,
      "vol": 5821,
      "zy": 5822,
      "ora": 5823,
      "Ġtown": 5824,
      "ara": 5825,
      "Ġease": 5826,
      "asion": 5827,
      "Ġhit": 5828,
      "Ġholid": 5829,
      "Ġisol": 5830,
      "Ġgift": 5831,
      "otype": 5832,
      "uls": 5833,
      "herry": 5834,
      "ĠHi": 5835,
      "ĠPar": 5836,
      "ĠMost": 5837,
      "Ġ\"\"\"": 5838,
      "ĠBr": 5839,
      "ĠBas": 5840,
      "ĠEvery": 5841,
      "Ġtech": 5842,
      "Ġunex": 5843,
      "Ġdespite": 5844,
      "ckl": 5845,
      "Ġfinds": 5846,
      "class": 5847,
      "Ġlocations": 5848,
      "Ġcontrolled": 5849,
      "token": 5850,
      "Ġencounter": 5851,
      "Ġinvesting": 5852,
      "Ġpreviously": 5853,
      "Ġrobust": 5854,
      "Ġprinciple": 5855,
      "Ġfloor": 5856,
      "Ġnpm": 5857,
      "Ġcopyright": 5858,
      "Ġinnovative": 5859,
      "Ġwonder": 5860,
      "Ġinfinite": 5861,
      "Ġtheorem": 5862,
      "plotlib": 5863,
      "Prime": 5864,
      "Ġcomparison": 5865,
      "Ġpicture": 5866,
      "agonist": 5867,
      "elihood": 5868,
      "Ġcognitive": 5869,
      "Ġcryst": 5870,
      "Ġlikelihood": 5871,
      ")}": 5872,
      "SH": 5873,
      "Tr": 5874,
      "gu": 5875,
      "sort": 5876,
      "inations": 5877,
      "Ġwel": 5878,
      "Ġpd": 5879,
      "Ġft": 5880,
      "Ġbaby": 5881,
      "icit": 5882,
      "ĠTell": 5883,
      "chron": 5884,
      "ĠAir": 5885,
      "ategor": 5886,
      "Ġexists": 5887,
      "adr": 5888,
      "Ġsudd": 5889,
      "ighter": 5890,
      "Ġsharing": 5891,
      "Ġplugin": 5892,
      "ĠRun": 5893,
      "ogram": 5894,
      "Ġadopt": 5895,
      "Ġserved": 5896,
      "Ġstrict": 5897,
      "Ġrare": 5898,
      "Ġchecks": 5899,
      "Ġagre": 5900,
      "Ġperforming": 5901,
      "Ġpossibilities": 5902,
      "Ġlightweight": 5903,
      "cription": 5904,
      "ĠDec": 5905,
      "Ġconstruction": 5906,
      "Ġeditor": 5907,
      "Ġmarkets": 5908,
      "ĠEnjoy": 5909,
      "Ġinteractive": 5910,
      "Ġslower": 5911,
      "ĠBlack": 5912,
      "Ġdiseases": 5913,
      "Ġterrit": 5914,
      "Ġterrain": 5915,
      "Ġmutual": 5916,
      "Ġpollution": 5917,
      "Ġcorresponding": 5918,
      "Ġinstitutions": 5919,
      "Ġlandscape": 5920,
      "ĠResearch": 5921,
      "Ġsudden": 5922,
      "89": 5923,
      "Time": 5924,
      "UT": 5925,
      "We": 5926,
      "iest": 5927,
      "la": 5928,
      "uit": 5929,
      "var": 5930,
      "Ġtal": 5931,
      "Ġtitle": 5932,
      "Ġagg": 5933,
      "inated": 5934,
      "real": 5935,
      "onic": 5936,
      "Ġsizes": 5937,
      "Ġcoc": 5938,
      "Ġcrops": 5939,
      "orris": 5940,
      "Ġwaves": 5941,
      "Ġbaking": 5942,
      "idate": 5943,
      "ĠSar": 5944,
      "abul": 5945,
      "rip": 5946,
      "ĠHung": 5947,
      "Ġhex": 5948,
      "open": 5949,
      "Ġneut": 5950,
      "this": 5951,
      "ĠBra": 5952,
      "ĠBitc": 5953,
      "Ġplaced": 5954,
      "index": 5955,
      "aching": 5956,
      "Ġjo": 5957,
      "Ġtrading": 5958,
      "ĠĠĠĠĠĠĠĠĠĠĠĠĠĠĠĠĠĠĠ": 5959,
      "ĠUI": 5960,
      "ĠJames": 5961,
      "Ġgenerates": 5962,
      "Ġrelativity": 5963,
      "Ġbund": 5964,
      "standing": 5965,
      "Ġlistening": 5966,
      "Ġdecided": 5967,
      "Ġgrand": 5968,
      "Ġincreases": 5969,
      "Ġtexture": 5970,
      "cules": 5971,
      "Ġpopularity": 5972,
      "Ġ199": 5973,
      "Ġprofit": 5974,
      "Ġbasis": 5975,
      "Ġcontributed": 5976,
      "Ġ__": 5977,
      "Ġhyper": 5978,
      "Ġdrum": 5979,
      "Ġdeliver": 5980,
      "Ġaudio": 5981,
      "ĠScience": 5982,
      "Ġcycl": 5983,
      "Ġethics": 5984,
      "Ġphotography": 5985,
      "Ġslowly": 5986,
      "Ġconflicts": 5987,
      "ĠDevelopment": 5988,
      "Ġregarding": 5989,
      "related": 5990,
      "Ġincreasingly": 5991,
      "Ġrepeat": 5992,
      "Ġrepeated": 5993,
      "Ġelectrons": 5994,
      "Client": 5995,
      "Ġvehicles": 5996,
      "ĠInternet": 5997,
      "Ġfinger": 5998,
      "Ġchopped": 5999,
      "Ġdecentralized": 6000,
      "ĠBitcoin": 6001,
      "75": 6002,
      "An": 6003,
      "TX": 6004,
      "UR": 6005,
      "cil": 6006,
      "event": 6007,
      "hand": 6008,
      "iate": 6009,
      "sub": 6010,
      "txt": 6011,
      "vis": 6012,
      "hem": 6013,
      "Ġfasc": 6014,
      "Ġinh": 6015,
      "Ġinit": 6016,
      "root": 6017,
      "Ġhous": 6018,
      "Ġloyal": 6019,
      "Ġreform": 6020,
      "Ġgap": 6021,
      "celer": 6022,
      "otal": 6023,
      "Ġconven": 6024,
      "ĠCar": 6025,
      "ERT": 6026,
      "ĠWork": 6027,
      "ĠMX": 6028,
      "ĠMoon": 6029,
      "Ġshoes": 6030,
      "Ġ26": 6031,
      "ĠIng": 6032,
      "ĠInitial": 6033,
      "aph": 6034,
      "Ġtheme": 6035,
      "Ġprem": 6036,
      "ĠJerry": 6037,
      "âĢĵ": 6038,
      "Ġinstances": 6039,
      "ĠChange": 6040,
      "Ġdesigns": 6041,
      "Ġcontrovers": 6042,
      "Ġpassion": 6043,
      "Ġsignificantly": 6044,
      "Ġcrust": 6045,
      "Ġoptimized": 6046,
      "Ġdrinking": 6047,
      "ĠPlace": 6048,
      "Ġdescribes": 6049,
      "Ġgenre": 6050,
      "porary": 6051,
      "ĠSpace": 6052,
      "Ġsunlight": 6053,
      "Ġappears": 6054,
      "Ġmorning": 6055,
      "arby": 6056,
      "Ġgained": 6057,
      "Ġexecute": 6058,
      "Ġdebate": 6059,
      "ĠServer": 6060,
      "Ġdedicated": 6061,
      "ĠTwitter": 6062,
      "gypt": 6063,
      "Ġsegment": 6064,
      "Ġsegments": 6065,
      "ĠGPUs": 6066,
      "Ġconcentration": 6067,
      "ĠUniversity": 6068,
      "Ġcooperation": 6069,
      "Ġrepository": 6070,
      "mittent": 6071,
      "Ġcuisine": 6072,
      "ĠSarah": 6073,
      "AV": 6074,
      "Con": 6075,
      "Res": 6076,
      "Torch": 6077,
      "aust": 6078,
      "efficient": 6079,
      "water": 6080,
      "reate": 6081,
      "Ġsav": 6082,
      "Ġsix": 6083,
      "Ġcourses": 6084,
      "orough": 6085,
      "Ġwoman": 6086,
      "Ġwait": 6087,
      "Ġpin": 6088,
      "Ġpuzz": 6089,
      "Ġborrow": 6090,
      "Ġhang": 6091,
      "Ġliber": 6092,
      "etary": 6093,
      "imation": 6094,
      "raction": 6095,
      "utton": 6096,
      "Ġstraw": 6097,
      "Ġproport": 6098,
      "ĠSouth": 6099,
      "ĠCa": 6100,
      "send": 6101,
      "ĠWater": 6102,
      "ĠPi": 6103,
      "Ġchapter": 6104,
      "Ġnotice": 6105,
      "Ġintu": 6106,
      "ĠGUI": 6107,
      "Ġ22": 6108,
      "Ġwearing": 6109,
      "Ġdates": 6110,
      "Ġroad": 6111,
      "Ġdisad": 6112,
      "Ġplays": 6113,
      "Ġpersist": 6114,
      "Ġdefend": 6115,
      "Ġ60": 6116,
      "Ġgrad": 6117,
      "Ġprovider": 6118,
      "comm": 6119,
      "Ġentry": 6120,
      "Ġoperator": 6121,
      "ĠExamples": 6122,
      "Ġreaders": 6123,
      "Ġelected": 6124,
      "Ġfinally": 6125,
      "ĠConst": 6126,
      "Ġfocusing": 6127,
      "Ġcaps": 6128,
      "Ġcalculated": 6129,
      "Ġturned": 6130,
      "Ġwindows": 6131,
      "Ġgenres": 6132,
      "ĠClass": 6133,
      "Ġmorality": 6134,
      "ĠIntroduction": 6135,
      "Ġopponent": 6136,
      "Ġgeometry": 6137,
      "ĠExplore": 6138,
      "Ġantib": 6139,
      "Ġdestroy": 6140,
      "Ġverify": 6141,
      "Ġdivide": 6142,
      "Ġexciting": 6143,
      "ĠTransform": 6144,
      "Ġenemy": 6145,
      "ĠVisual": 6146,
      "ĠOutput": 6147,
      "Ġnuclear": 6148,
      "Ġversatile": 6149,
      "Ġcontradict": 6150,
      "Ġcircumstances": 6151,
      "Ġlifestyle": 6152,
      "35": 6153,
      "85": 6154,
      "lines": 6155,
      "ois": 6156,
      "pat": 6157,
      "ynt": 6158,
      "Ġà¤": 6159,
      "onut": 6160,
      "Ġsad": 6161,
      "Ġcategor": 6162,
      "Ġpap": 6163,
      "arp": 6164,
      "Ġrely": 6165,
      "username": 6166,
      "ĠTensor": 6167,
      "random": 6168,
      "ifies": 6169,
      "ĠSum": 6170,
      "Ġorange": 6171,
      "ĠCo": 6172,
      "ĠCy": 6173,
      "hern": 6174,
      "ĠPort": 6175,
      "ĠPick": 6176,
      "Ġnearby": 6177,
      "Ġ1000": 6178,
      "ĠMac": 6179,
      "Ġrates": 6180,
      "Ġsevere": 6181,
      "ĠEgypt": 6182,
      "Ġadop": 6183,
      "ĠOcean": 6184,
      "duc": 6185,
      "Ġcreators": 6186,
      "Ġqueries": 6187,
      "Ġsimulate": 6188,
      "Ġapolog": 6189,
      "Ġrelative": 6190,
      "Ġperformed": 6191,
      "Ġowner": 6192,
      "Ġrealized": 6193,
      "example": 6194,
      "Ġsuggested": 6195,
      "score": 6196,
      "Ġdifficulty": 6197,
      "Ġavailability": 6198,
      "ĠQue": 6199,
      "ĠEnsure": 6200,
      "Ġnecessarily": 6201,
      "azon": 6202,
      "Ġbroken": 6203,
      "Ġindustrial": 6204,
      "Ġbegins": 6205,
      "ĠComput": 6206,
      "Ġreaction": 6207,
      "ĠKey": 6208,
      "Ġdetection": 6209,
      "Ġformatting": 6210,
      "ĠService": 6211,
      "Ġguidelines": 6212,
      "Ġpowder": 6213,
      "number": 6214,
      "ĠPyTorch": 6215,
      "Ġvulnerabilities": 6216,
      "hydr": 6217,
      "Learning": 6218,
      "Ġresolve": 6219,
      "Ġcompatible": 6220,
      "ĠNetwork": 6221,
      "Ġadvertising": 6222,
      "Ġrenewable": 6223,
      "Ġleprosy": 6224,
      "abulary": 6225,
      "76": 6226,
      "backs": 6227,
      "iking": 6228,
      "kens": 6229,
      "length": 6230,
      "pm": 6231,
      "rich": 6232,
      "Ġahead": 6233,
      "ref": 6234,
      "Ġsamples": 6235,
      "Ġcoun": 6236,
      "itute": 6237,
      "Ġwat": 6238,
      "Ġfle": 6239,
      "Ġboy": 6240,
      "Ġlinks": 6241,
      "Ġrewrite": 6242,
      "Ġbeef": 6243,
      "style": 6244,
      "igating": 6245,
      "Ġstom": 6246,
      "ĠAng": 6247,
      "ithub": 6248,
      "Ġassem": 6249,
      "urd": 6250,
      "ĠCherry": 6251,
      "Ġcompl": 6252,
      "erent": 6253,
      "Ġsudo": 6254,
      "osph": 6255,
      "ĠBack": 6256,
      "ĠDist": 6257,
      "ĠFl": 6258,
      "ĠFed": 6259,
      "ĠRAM": 6260,
      "ffball": 6261,
      "Ġkids": 6262,
      "Ġspending": 6263,
      "bert": 6264,
      "Ġprepar": 6265,
      "Ġfolk": 6266,
      "Ġthanks": 6267,
      "Ġruntime": 6268,
      "Ġ<<": 6269,
      "Ġimprovements": 6270,
      "Ġcharacterized": 6271,
      "Ġpursu": 6272,
      "erring": 6273,
      "Ġversions": 6274,
      "Ġcustomize": 6275,
      "Ġcalculations": 6276,
      "Ġcrime": 6277,
      "Ġturns": 6278,
      "Ġintegers": 6279,
      "azi": 6280,
      "Ġfaced": 6281,
      "ipping": 6282,
      "Ġassumptions": 6283,
      "Ġgolden": 6284,
      "Ġchannels": 6285,
      "Ġchoosing": 6286,
      "Ġfighting": 6287,
      "Ġmagnetic": 6288,
      "Ġdimension": 6289,
      "Ġmistakes": 6290,
      "Ġscenario": 6291,
      "Ġlicense": 6292,
      "Ġuncertain": 6293,
      "Ġsplit": 6294,
      "Ġfavorite": 6295,
      "Ġweaknesses": 6296,
      "Ġunlikely": 6297,
      "Ġabstract": 6298,
      "ĠFluffball": 6299,
      "Ġscholars": 6300,
      "Ġillegal": 6301,
      ")^": 6302,
      "How": 6303,
      "LL": 6304,
      "PS": 6305,
      "SP": 6306,
      "fast": 6307,
      "game": 6308,
      "how": 6309,
      "li": 6310,
      "oices": 6311,
      "pi": 6312,
      "title": 6313,
      "zen": 6314,
      "Ġà°": 6315,
      "Ġsister": 6316,
      "atter": 6317,
      "anit": 6318,
      "arant": 6319,
      "Ġthus": 6320,
      "Ġcancer": 6321,
      "urt": 6322,
      "Ġanx": 6323,
      "ĠCustom": 6324,
      "OSI": 6325,
      "ĠHarry": 6326,
      "Ġsuit": 6327,
      "plays": 6328,
      "ĠMet": 6329,
      "ĠBusiness": 6330,
      "Ġship": 6331,
      "Ġadminist": 6332,
      "ĠOpt": 6333,
      "Ġcontents": 6334,
      "Ġdiffusion": 6335,
      "Ġclosed": 6336,
      "context": 6337,
      "Ġrepet": 6338,
      "Ġago": 6339,
      "Ġ2021": 6340,
      "Ġedges": 6341,
      "ategory": 6342,
      "ĠPlan": 6343,
      "Ġdigit": 6344,
      "####": 6345,
      "porate": 6346,
      "oxide": 6347,
      "ĠClick": 6348,
      "Ġfigures": 6349,
      "Ġkeyboards": 6350,
      "Ġembed": 6351,
      "Ġmaximize": 6352,
      "Ġemphasis": 6353,
      "Ġcontinuous": 6354,
      "ĠSimilar": 6355,
      "training": 6356,
      "Ġaccommod": 6357,
      "ĠBuilding": 6358,
      "Ġexecuted": 6359,
      "Ġscenarios": 6360,
      "Ġbullet": 6361,
      "Ġmolecules": 6362,
      "Ġtitles": 6363,
      "Ġliquid": 6364,
      "Ġpretty": 6365,
      "ĠIngredients": 6366,
      "bar": 6367,
      "bash": 6368,
      "gov": 6369,
      "kit": 6370,
      "label": 6371,
      "microsoft": 6372,
      "Ġãģ": 6373,
      "ĠÂłÂłÂłÂł": 6374,
      "Ľâł": 6375,
      "Ġtiny": 6376,
      "iner": 6377,
      "attle": 6378,
      "Ġcrow": 6379,
      "ename": 6380,
      "anches": 6381,
      "Ġfather": 6382,
      "Ġdinner": 6383,
      "Ġthorough": 6384,
      "asp": 6385,
      "Ġbeat": 6386,
      "chin": 6387,
      "Ġanom": 6388,
      "ĠCode": 6389,
      "ĠCount": 6390,
      "seg": 6391,
      "uming": 6392,
      "pling": 6393,
      "ocracy": 6394,
      "osh": 6395,
      "ĠBay": 6396,
      "ĠEnd": 6397,
      "Ġweigh": 6398,
      "Ġincl": 6399,
      "ulture": 6400,
      "arding": 6401,
      "anges": 6402,
      "asts": 6403,
      "Ġjump": 6404,
      "Ġmaybe": 6405,
      "Ġunderstood": 6406,
      "Ġexplo": 6407,
      "plicated": 6408,
      "blem": 6409,
      "ĠProgram": 6410,
      "Ġtexts": 6411,
      "Ġmultip": 6412,
      "ĠAlice": 6413,
      "Ġconsiderations": 6414,
      "Ġdiscovery": 6415,
      "Ġprotagonist": 6416,
      "Ġmetric": 6417,
      "ĠAndroid": 6418,
      "Ġachieving": 6419,
      "Ġbasics": 6420,
      "Ġpawn": 6421,
      "ĠDescribe": 6422,
      "Ġbrows": 6423,
      "Ġconsistency": 6424,
      "Ġanalyzing": 6425,
      "Ġdistributions": 6426,
      "Ġjournal": 6427,
      "ARIT": 6428,
      "Ġregardless": 6429,
      "Ġawareness": 6430,
      "Ġtranslation": 6431,
      "Ġfluid": 6432,
      "Ġmatching": 6433,
      "Ġtimeline": 6434,
      "Ġtheoretical": 6435,
      "Ġinjuries": 6436,
      "Ġvehicle": 6437,
      "Ġmissing": 6438,
      "Ġkingdom": 6439,
      "Ġsummarize": 6440,
      "Ġphilosopher": 6441,
      "Ġretrieve": 6442,
      "Ġcoconut": 6443,
      "ARITATE": 6444,
      "48": 6445,
      "BSD": 6446,
      "CO": 6447,
      "CS": 6448,
      "Get": 6449,
      "Is": 6450,
      "LP": 6451,
      "base": 6452,
      "distance": 6453,
      "fl": 6454,
      "gl": 6455,
      "mg": 6456,
      "mber": 6457,
      "uary": 6458,
      "à¥": 6459,
      "Ġ!": 6460,
      "rets": 6461,
      "Ġcards": 6462,
      "Ġmdr": 6463,
      "Ġborn": 6464,
      "Ġinner": 6465,
      "Ġthreshold": 6466,
      "Ġrect": 6467,
      "using": 6468,
      "ceed": 6469,
      "Ġbeans": 6470,
      "ĠAc": 6471,
      "ĠSSH": 6472,
      "Ġusername": 6473,
      "Ġwhis": 6474,
      "ĠHy": 6475,
      "Ġheating": 6476,
      "acent": 6477,
      "Ġrice": 6478,
      "ĠBle": 6479,
      "ĠFast": 6480,
      "ĠEst": 6481,
      "ĠRome": 6482,
      "ĠRob": 6483,
      "Ġincent": 6484,
      "Ġkm": 6485,
      "Ġunknown": 6486,
      "Ġtraditions": 6487,
      "Ġroles": 6488,
      "Ġcouldn": 6489,
      "ĠJan": 6490,
      "Ġspot": 6491,
      "Ġrecently": 6492,
      "Ġindicate": 6493,
      "Ġindeed": 6494,
      "Ġexplicit": 6495,
      "Ġlisted": 6496,
      "())": 6497,
      "Ġleadership": 6498,
      "Ġ};": 6499,
      "luc": 6500,
      "Ġbelong": 6501,
      "Ġclearly": 6502,
      "error": 6503,
      "Ġfriendly": 6504,
      "Ġbench": 6505,
      "Ġidentified": 6506,
      "Ġdriven": 6507,
      "Ġrepresented": 6508,
      "Ġ>>": 6509,
      "itesimals": 6510,
      "ometers": 6511,
      "ometric": 6512,
      "ooting": 6513,
      "arbon": 6514,
      "String": 6515,
      "Ġmajority": 6516,
      "Ġabsolute": 6517,
      "Ġlabels": 6518,
      "ipped": 6519,
      "Ġproposal": 6520,
      "Ġincorporate": 6521,
      "Ġwatching": 6522,
      "Ġcompilation": 6523,
      "Ġmalicious": 6524,
      "ugging": 6525,
      "Ġdiscrimin": 6526,
      "directory": 6527,
      "ĠHelp": 6528,
      "ĠIdentify": 6529,
      "Ġearlier": 6530,
      "Cont": 6531,
      "WS": 6532,
      "doc": 6533,
      "no": 6534,
      "pack": 6535,
      "uge": 6536,
      "Ã¡": 6537,
      "inent": 6538,
      "itarian": 6539,
      "Ġfur": 6540,
      "Ġfirm": 6541,
      "ica": 6542,
      "icity": 6543,
      "rooms": 6544,
      "Ġthous": 6545,
      "Ġell": 6546,
      "ĠIP": 6547,
      "otic": 6548,
      "uning": 6549,
      "ĠSur": 6550,
      "ĠCross": 6551,
      "ĠCARITATE": 6552,
      "ĠHam": 6553,
      "ĠPHP": 6554,
      "plete": 6555,
      "Ġsends": 6556,
      "ĠDark": 6557,
      "Ġshift": 6558,
      "ĠEpic": 6559,
      "Ġintake": 6560,
      "Ġintention": 6561,
      "ĠRuss": 6562,
      "ĠLis": 6563,
      "Ġunf": 6564,
      "Ġunne": 6565,
      "ieval": 6566,
      "Ġarr": 6567,
      "Ġarrange": 6568,
      "berry": 6569,
      "ressed": 6570,
      "Ġserves": 6571,
      "ĠStable": 6572,
      "ords": 6573,
      "Ġrecover": 6574,
      "Ġnumer": 6575,
      "Ġprocessed": 6576,
      "Ġformed": 6577,
      "Ġformation": 6578,
      "ĠVari": 6579,
      "object": 6580,
      "Ġcalend": 6581,
      "Ġdecimal": 6582,
      "Ġsigns": 6583,
      "Ġcompute": 6584,
      "Ġcomputation": 6585,
      "Ġperforms": 6586,
      "Ġowners": 6587,
      "Ġlighting": 6588,
      "ĠAlthough": 6589,
      "Ġbranches": 6590,
      "Ġpracticing": 6591,
      "Ġconcrete": 6592,
      "Ġcalculates": 6593,
      "Ġhappens": 6594,
      "poons": 6595,
      "Ġzone": 6596,
      "Ġrepresenting": 6597,
      "Ġstands": 6598,
      "Ġcontributing": 6599,
      "ucchin": 6600,
      "PIO": 6601,
      "Ġintelligent": 6602,
      "Ġwarfare": 6603,
      "Ġtraveling": 6604,
      "Ġadapted": 6605,
      "Ġholds": 6606,
      "lands": 6607,
      "ĠGreece": 6608,
      "Ġmarine": 6609,
      "Ġincorrect": 6610,
      "Ġspeaker": 6611,
      "Ġspecifies": 6612,
      "Ġmotivation": 6613,
      "Ġaims": 6614,
      "Ġderived": 6615,
      "Ġbeauty": 6616,
      "Ġreligion": 6617,
      "Ġstruggle": 6618,
      "Ġdivided": 6619,
      "Ġspiritual": 6620,
      "Ġvocabulary": 6621,
      "ĠGalois": 6622,
      "Ġcloser": 6623,
      "Ġastron": 6624,
      "ĠAustral": 6625,
      "Ġpandas": 6626,
      "Ġmonitoring": 6627,
      "Ġcinema": 6628,
      "((": 6629,
      "01": 6630,
      "Col": 6631,
      "EO": 6632,
      "Hub": 6633,
      "ka": 6634,
      "loop": 6635,
      "ups": 6636,
      "Ġolive": 6637,
      "Ġmeth": 6638,
      "Ġbind": 6639,
      "Ġbatch": 6640,
      "Ġbrought": 6641,
      "Ġyes": 6642,
      "usions": 6643,
      "olt": 6644,
      "Ġonions": 6645,
      "Ġconve": 6646,
      "ĠWest": 6647,
      "mented": 6648,
      "ortis": 6649,
      "oses": 6650,
      "ĠBro": 6651,
      "izable": 6652,
      "ĠThree": 6653,
      "Ġintent": 6654,
      "ĠGraph": 6655,
      "Ġ23": 6656,
      "Ġunl": 6657,
      "Ġwouldn": 6658,
      "Ġoverfitting": 6659,
      "Ġserving": 6660,
      "Ġpointer": 6661,
      "Ġtransactions": 6662,
      "Ġflash": 6663,
      "ĠAltern": 6664,
      "Ġlaugh": 6665,
      "Ġoperate": 6666,
      "Ġdiagn": 6667,
      "bohydr": 6668,
      "ĠOpenBSD": 6669,
      "Ġbeneficial": 6670,
      "Ġpolitics": 6671,
      "Ġdeli": 6672,
      "Ġportal": 6673,
      "Ġwarri": 6674,
      "Ġlegacy": 6675,
      "ĠInstructions": 6676,
      "Ġbalanced": 6677,
      "brid": 6678,
      "Ġinterpreted": 6679,
      "Ġmassive": 6680,
      "Ġmixed": 6681,
      "Ġdynamically": 6682,
      "Ġintegrity": 6683,
      "Ġcutting": 6684,
      "Ġultimate": 6685,
      "Ġvulnerability": 6686,
      "trained": 6687,
      "Ġtrusted": 6688,
      "break": 6689,
      "Ġdialogue": 6690,
      "Ġinstruments": 6691,
      "Ġviolence": 6692,
      "Ġspells": 6693,
      "Ġvertical": 6694,
      "Ġfailure": 6695,
      "Ġchatb": 6696,
      "Ġinheritance": 6697,
      "odynamics": 6698,
      "Ġscratch": 6699,
      "Ġcarrots": 6700,
      "={": 6701,
      "AB": 6702,
      "Com": 6703,
      "DR": 6704,
      "bin": 6705,
      "bows": 6706,
      "build": 6707,
      "effect": 6708,
      "gener": 6709,
      "hire": 6710,
      "iety": 6711,
      "link": 6712,
      "node": 6713,
      "ux": 6714,
      "your": 6715,
      "ĨĴ": 6716,
      "Ġslic": 6717,
      "Ġwider": 6718,
      "Ġfill": 6719,
      "Ġdocker": 6720,
      "Ġthrow": 6721,
      "Ġhop": 6722,
      "Ġlen": 6723,
      "Ġreject": 6724,
      "Ġstone": 6725,
      "eless": 6726,
      "oded": 6727,
      "ĠSN": 6728,
      "ĠCSV": 6729,
      "Ġalthough": 6730,
      "Ġsuited": 6731,
      "Ġnearest": 6732,
      "acking": 6733,
      "ĠMem": 6734,
      "ĠMart": 6735,
      "ĠMountain": 6736,
      "ocking": 6737,
      "ĠRest": 6738,
      "ĠLast": 6739,
      "Ġcomposition": 6740,
      "agram": 6741,
      "Ġkernel": 6742,
      "appe": 6743,
      "Ġarri": 6744,
      "Ġdishes": 6745,
      "Ġthank": 6746,
      "Ġexploration": 6747,
      "ĠKnow": 6748,
      "ĠRec": 6749,
      "Ġpossibility": 6750,
      "Ġtypical": 6751,
      "ĠDev": 6752,
      "Ġends": 6753,
      "Ġequations": 6754,
      "Ġmetrics": 6755,
      "Ġconnecting": 6756,
      "Ġlessons": 6757,
      "Ġcontaining": 6758,
      "Ġslice": 6759,
      "Ġcombine": 6760,
      "Ġtells": 6761,
      "author": 6762,
      "Ġinteger": 6763,
      "ĠPhilos": 6764,
      "Ġloops": 6765,
      "Ġfacil": 6766,
      "Ġtransformers": 6767,
      "Ġexecution": 6768,
      "ĠUSB": 6769,
      "Ġdestination": 6770,
      "Ġmargin": 6771,
      "Ġfulf": 6772,
      "trans": 6773,
      "Ġframeworks": 6774,
      "Ġvegetable": 6775,
      "Ġnutrients": 6776,
      "Ġstruggling": 6777,
      "Ġimagine": 6778,
      "Ġbreathing": 6779,
      "ĠClear": 6780,
      "Ġrestrictions": 6781,
      "ĠDiffusion": 6782,
      "Ġmanufacture": 6783,
      "Ġcredentials": 6784,
      "ĠLLM": 6785,
      "Ġsacr": 6786,
      "ĠSDL": 6787,
      "Image": 6788,
      "Ġobstacles": 6789,
      "Ġunexpected": 6790,
      "Ġantibiot": 6791,
      "42": 6792,
      "GB": 6793,
      "IP": 6794,
      "PE": 6795,
      "fu": 6796,
      "ios": 6797,
      "iability": 6798,
      "sv": 6799,
      "under": 6800,
      "Ã¤": 6801,
      "Ġicon": 6802,
      "Ġtension": 6803,
      "heet": 6804,
      "Ġcovered": 6805,
      "iter": 6806,
      "Ġwis": 6807,
      "Ġpages": 6808,
      "Ġpix": 6809,
      "Ġfox": 6810,
      "Ġfiction": 6811,
      "aled": 6812,
      "alcon": 6813,
      "Ġdust": 6814,
      "Ġduck": 6815,
      "edy": 6816,
      "imp": 6817,
      "Ġgases": 6818,
      "ceans": 6819,
      "rays": 6820,
      "Ġstim": 6821,
      "ado": 6822,
      "OST": 6823,
      "ĠHist": 6824,
      "erer": 6825,
      "ores": 6826,
      "orean": 6827,
      "ĠPresident": 6828,
      "ĠMarch": 6829,
      "ocial": 6830,
      "Ġseasons": 6831,
      "ĠDem": 6832,
      "ĠEas": 6833,
      "Ġworry": 6834,
      "Ġintensity": 6835,
      "ĠRP": 6836,
      "ĠInput": 6837,
      "agine": 6838,
      "Ġspect": 6839,
      "ĠYork": 6840,
      "Ġclothing": 6841,
      "Ġmanual": 6842,
      "Ġoutdo": 6843,
      "Ġperce": 6844,
      "Ġperception": 6845,
      "Ġprep": 6846,
      "Ġmyster": 6847,
      "Ġdisplays": 6848,
      "Ġknowing": 6849,
      "ailh": 6850,
      "Ġgenerations": 6851,
      "Ġobj": 6852,
      "Ġ##": 6853,
      "phabet": 6854,
      "Ġproduces": 6855,
      "Ġcompleted": 6856,
      "ĠKailh": 6857,
      "Ġ`-": 6858,
      "Ġremind": 6859,
      "Ġagree": 6860,
      "Ġguarant": 6861,
      "Ġmedieval": 6862,
      "Ġeveryday": 6863,
      "Ġentity": 6864,
      "Ġoperators": 6865,
      "Ġfewer": 6866,
      "exic": 6867,
      "Ġfinance": 6868,
      "Ġshel": 6869,
      "Ġdetermining": 6870,
      "Ġstreet": 6871,
      "Ġencrypt": 6872,
      "ĠArrow": 6873,
      "forward": 6874,
      "ometimes": 6875,
      "Ġaccounts": 6876,
      "Ġsubjects": 6877,
      "Ġkinds": 6878,
      "Ġexplores": 6879,
      "ĠâĨĴ": 6880,
      "Ġdebt": 6881,
      "ontal": 6882,
      "Ġgreenhouse": 6883,
      "Ġevaluation": 6884,
      "Ġembra": 6885,
      "Ġsymbolic": 6886,
      "Ġheavily": 6887,
      "ĠMathemat": 6888,
      "Ġinfinity": 6889,
      "Ġincorporating": 6890,
      "Ġcryptography": 6891,
      "Ġparents": 6892,
      "Ġmythology": 6893,
      "ĠAmazon": 6894,
      "ĠGitHub": 6895,
      "Ġextremely": 6896,
      "Ġexhib": 6897,
      "Ġexhaust": 6898,
      "Ġfemale": 6899,
      "Ġderivative": 6900,
      "Ġaccomplish": 6901,
      "Ġapologize": 6902,
      "ĠQueen": 6903,
      "DE": 6904,
      "TH": 6905,
      "Te": 6906,
      "`:": 6907,
      "bru": 6908,
      "dem": 6909,
      "oj": 6910,
      "tes": 6911,
      "Ġou": 6912,
      "Ġrom": 6913,
      "reactions": 6914,
      "oust": 6915,
      "item": 6916,
      "itution": 6917,
      "Ġpizza": 6918,
      "Ġod": 6919,
      "Ġfed": 6920,
      "Ġfurn": 6921,
      "Ġmale": 6922,
      "alog": 6923,
      "lets": 6924,
      "Ġthumb": 6925,
      "Ġlon": 6926,
      "ĠIN": 6927,
      "ols": 6928,
      "Ġstrain": 6929,
      "ĠAtt": 6930,
      "ĠSir": 6931,
      "ĠCut": 6932,
      "estant": 6933,
      "ĠMor": 6934,
      "Ġchlor": 6935,
      "Ġ\"<": 6936,
      "ĠBest": 6937,
      "ppers": 6938,
      "ĠEven": 6939,
      "ĠRE": 6940,
      "ĠRo": 6941,
      "ĠRel": 6942,
      "ĠGr": 6943,
      "ella": 6944,
      "velength": 6945,
      "ango": 6946,
      "anged": 6947,
      "ief": 6948,
      "Ġscan": 6949,
      "Ġacceler": 6950,
      "Ġperm": 6951,
      "Ġpercent": 6952,
      "Ġdisaster": 6953,
      "Ġknows": 6954,
      "Ġspelling": 6955,
      "Ġintersection": 6956,
      "ĠStay": 6957,
      "Ġmodeling": 6958,
      "Ġemit": 6959,
      "Ġraw": 6960,
      "Ġasset": 6961,
      "().": 6962,
      "Ġagric": 6963,
      "Ġfactorial": 6964,
      "Ġsubmit": 6965,
      "close": 6966,
      "Ġfilters": 6967,
      "axos": 6968,
      "Ġ2020": 6969,
      "Ġmuse": 6970,
      "Ġmush": 6971,
      "ewel": 6972,
      "Ġboil": 6973,
      "ttp": 6974,
      "Ġcalculation": 6975,
      "Ġdemocratic": 6976,
      "Ġorganized": 6977,
      "Ġanimations": 6978,
      "ophy": 6979,
      "Ġzucchin": 6980,
      "Ġlogo": 6981,
      "Ġlogical": 6982,
      "ĠScal": 6983,
      "Ġalternatives": 6984,
      "Ġvalidate": 6985,
      "Ġcalls": 6986,
      "Ġsmoke": 6987,
      "Ġforeign": 6988,
      "Ġdiscussion": 6989,
      "Character": 6990,
      "Ġrows": 6991,
      "Ġspeakers": 6992,
      "Ġsurroundings": 6993,
      "Ġpipeline": 6994,
      "Ġillust": 6995,
      "Ġdemonstrate": 6996,
      "cosmos": 6997,
      "Ġpromoting": 6998,
      "config": 6999,
      "Ġdefeat": 7000,
      "Ġcabin": 7001,
      "Ġcitizens": 7002,
      "Ġdesktop": 7003,
      "ĠWhether": 7004,
      "Ġdictionary": 7005,
      "Ġrhythm": 7006,
      "Ġwelcome": 7007,
      ")`": 7008,
      "->": 7009,
      "SQL": 7010,
      "bly": 7011,
      "case": 7012,
      "medi": 7013,
      "page": 7014,
      "rition": 7015,
      "sign": 7016,
      "tune": 7017,
      "whel": 7018,
      "Ġ@": 7019,
      "Ġsoph": 7020,
      "Ġcategory": 7021,
      "Ġpark": 7022,
      "Ġfrag": 7023,
      "Ġdro": 7024,
      "Ġretain": 7025,
      "ĠTuring": 7026,
      "Ġgluc": 7027,
      "status": 7028,
      "olk": 7029,
      "eles": 7030,
      "ama": 7031,
      "oday": 7032,
      "urrent": 7033,
      "unately": 7034,
      "ĠSqu": 7035,
      "ĠSort": 7036,
      "ĠSolid": 7037,
      "ĠCook": 7038,
      "peare": 7039,
      "Ġhack": 7040,
      "ements": 7041,
      "Ġimaging": 7042,
      "ĠMexic": 7043,
      "ĠDynam": 7044,
      "ĠEt": 7045,
      "Ġplate": 7046,
      "Ġintel": 7047,
      "ogs": 7048,
      "formance": 7049,
      "Ġteac": 7050,
      "Ġunw": 7051,
      "Ġ32": 7052,
      "Ġ300": 7053,
      "ĠYe": 7054,
      "Ġclients": 7055,
      "Ġfees": 7056,
      "Ġtradition": 7057,
      "Ġ45": 7058,
      "Ġspo": 7059,
      "Ġapplying": 7060,
      "Ġvariations": 7061,
      "Ġregulate": 7062,
      "Ġdecor": 7063,
      "Ġfindings": 7064,
      "Ġchecking": 7065,
      "Ġeffectiveness": 7066,
      "Ġcommunic": 7067,
      "Ġmemories": 7068,
      "Ġextended": 7069,
      "axis": 7070,
      "ĠExper": 7071,
      "Ġdiversity": 7072,
      "Ġdioxide": 7073,
      "Ġvisited": 7074,
      "Ġensures": 7075,
      "Ġbreaks": 7076,
      "Ġprints": 7077,
      "Ġglad": 7078,
      "Ġpublish": 7079,
      "Ġserverless": 7080,
      "Ġspeeds": 7081,
      "Ġlooked": 7082,
      "ĠShow": 7083,
      "ĠSelect": 7084,
      "Ġinstalling": 7085,
      "Ġstrategic": 7086,
      "Ġavoiding": 7087,
      "Ġinvestors": 7088,
      "ĠImagine": 7089,
      "Ġengineer": 7090,
      "ĠSpain": 7091,
      "Ġimmune": 7092,
      "Ġphoto": 7093,
      "âĢĿ,": 7094,
      "Ġdrawing": 7095,
      "akespeare": 7096,
      "ĠInclude": 7097,
      "Ġintegrated": 7098,
      "Ġtranslate": 7099,
      "Ġfluct": 7100,
      "Ġscalable": 7101,
      "Ġmacro": 7102,
      "Ġthreats": 7103,
      "Ġcups": 7104,
      "ĠInternational": 7105,
      "Ġinequality": 7106,
      "Ġarmor": 7107,
      "Ġsoul": 7108,
      "Ġkilometers": 7109,
      "Ġvibrant": 7110,
      "Ġsymmetric": 7111,
      "ĠCalculate": 7112,
      "ĠAMD": 7113,
      "Ġsocietal": 7114,
      "Ġunnecess": 7115,
      "Ġglucose": 7116,
      "36": 7117,
      "CP": 7118,
      "DB": 7119,
      "Number": 7120,
      "Options": 7121,
      "Py": 7122,
      "ca": 7123,
      "ders": 7124,
      "gon": 7125,
      "mm": 7126,
      "map": 7127,
      "och": 7128,
      "rf": 7129,
      "rin": 7130,
      "rum": 7131,
      "Ġĉ": 7132,
      "Ġske": 7133,
      "Ġcube": 7134,
      "Ġcsv": 7135,
      "Ġwal": 7136,
      "Ġflying": 7137,
      "Ġandroid": 7138,
      "ald": 7139,
      "Ġbodies": 7140,
      "Ġtow": 7141,
      "Ġdot": 7142,
      "Ġthin": 7143,
      "asazi": 7144,
      "omy": 7145,
      "Ġlunch": 7146,
      "entine": 7147,
      "eting": 7148,
      "ĠTim": 7149,
      "ĠTitle": 7150,
      "Ġgut": 7151,
      "ching": 7152,
      "start": 7153,
      "Ġstunning": 7154,
      "ifically": 7155,
      "ĠArab": 7156,
      "ĠSometimes": 7157,
      "Ġalive": 7158,
      "umes": 7159,
      "Ġdele": 7160,
      "abil": 7161,
      "abling": 7162,
      "Ġhes": 7163,
      "ĠPark": 7164,
      "ĠMove": 7165,
      "ĠMond": 7166,
      "throp": 7167,
      "Ġsex": 7168,
      "ĠBo": 7169,
      "ĠDNA": 7170,
      "active": 7171,
      "inear": 7172,
      "Ġupper": 7173,
      "ĠLess": 7174,
      "alls": 7175,
      "Ġjum": 7176,
      "Ġjoy": 7177,
      "Ġtrail": 7178,
      "ramer": 7179,
      "ipse": 7180,
      "Ġproven": 7181,
      "Ġpred": 7182,
      "Ġdisrupt": 7183,
      "Ġtape": 7184,
      "Ġoverwhel": 7185,
      "Ġspark": 7186,
      "fully": 7187,
      "Ġcolour": 7188,
      "Ġpron": 7189,
      "Ġbugs": 7190,
      "Ġwhereas": 7191,
      "ythag": 7192,
      "Ġregards": 7193,
      "Ġmatplotlib": 7194,
      "Ġgrain": 7195,
      "Ġdesigning": 7196,
      "Ġleaders": 7197,
      "ernames": 7198,
      "ĠAnasazi": 7199,
      "ĠDepending": 7200,
      "Ġ2022": 7201,
      "Ġbridge": 7202,
      "airs": 7203,
      "Ġencoding": 7204,
      "Ġcombat": 7205,
      "ĠLeague": 7206,
      "Ġsearching": 7207,
      "Ġportion": 7208,
      "Ġsaying": 7209,
      "199": 7210,
      "Ġreasoning": 7211,
      "Ġtransformation": 7212,
      "Ġcollected": 7213,
      "Ġmillions": 7214,
      "Ġfitness": 7215,
      "Ġschools": 7216,
      "ĠColor": 7217,
      "Ġhappened": 7218,
      "Ġinspiration": 7219,
      "ĠHTTP": 7220,
      "Ġassumes": 7221,
      "Ġfrontend": 7222,
      "afe": 7223,
      "ĠMinister": 7224,
      "Ġwavelength": 7225,
      "speed": 7226,
      "Process": 7227,
      "abetes": 7228,
      "ĠDeterm": 7229,
      "ĠEconomics": 7230,
      "Ġtransparent": 7231,
      "ĠCanada": 7232,
      "NNs": 7233,
      "Ġaffordable": 7234,
      "Ġcryptocurrency": 7235,
      "ĠFurthermore": 7236,
      "ĠJanuary": 7237,
      "cosmosdb": 7238,
      "46": 7239,
      "FF": 7240,
      "function": 7241,
      "gers": 7242,
      "lin": 7243,
      "rout": 7244,
      "Ġ00": 7245,
      "inating": 7246,
      "Ġsin": 7247,
      "Ġca": 7248,
      "orking": 7249,
      "itors": 7250,
      "Ġok": 7251,
      "ancy": 7252,
      "Ġmouse": 7253,
      "Ġbond": 7254,
      "Ġduration": 7255,
      "Ġdrop": 7256,
      "aration": 7257,
      "Ġthr": 7258,
      "Ġlingu": 7259,
      "Ġreaches": 7260,
      "Ġstack": 7261,
      "ĠAge": 7262,
      "urally": 7263,
      "Ġaren": 7264,
      "unc": 7265,
      "security": 7266,
      "gend": 7267,
      "Ġcomments": 7268,
      "abol": 7269,
      "Ġvote": 7270,
      "ĠWord": 7271,
      "aint": 7272,
      "acci": 7273,
      "ĠMal": 7274,
      "ĠMethod": 7275,
      "thread": 7276,
      "ĠBi": 7277,
      "ĠBre": 7278,
      "allow": 7279,
      "ibon": 7280,
      "Ġscar": 7281,
      "apple": 7282,
      "Ġarise": 7283,
      "Ġdisappe": 7284,
      "ĠJul": 7285,
      "ĠJack": 7286,
      "Ġspent": 7287,
      "Ġprison": 7288,
      "âĢĶ": 7289,
      "Ġproducing": 7290,
      "plicity": 7291,
      "Ġ69": 7292,
      "Ġowned": 7293,
      "comfort": 7294,
      "Ġbuildings": 7295,
      "Ġbackup": 7296,
      "Ġpatent": 7297,
      "ĠExcel": 7298,
      "Ġprototype": 7299,
      "ĠâĢĵ": 7300,
      "Ġproductivity": 7301,
      "Ġpassing": 7302,
      "Ġmonad": 7303,
      "rencies": 7304,
      "Ġstreaming": 7305,
      "Ġpreventing": 7306,
      "ĠSecurity": 7307,
      "ĠAssuming": 7308,
      "show": 7309,
      "Ġgenes": 7310,
      "Ġautomate": 7311,
      "Ġreasonable": 7312,
      "ographic": 7313,
      "ĠRemove": 7314,
      "Ġhosting": 7315,
      "Ġintegrate": 7316,
      "ĠControl": 7317,
      "Ġrecords": 7318,
      "Ġsmoothing": 7319,
      "Ġmotherboard": 7320,
      "ĠValue": 7321,
      "Ġurban": 7322,
      "Ġtransitioning": 7323,
      "Ġcompiler": 7324,
      "itchen": 7325,
      "Ġhydro": 7326,
      "Ġhomes": 7327,
      "ashington": 7328,
      "Ġsports": 7329,
      "Ġinsect": 7330,
      "ĠLisa": 7331,
      "ortisol": 7332,
      "Ġprepared": 7333,
      "ewelry": 7334,
      "Id": 7335,
      "Text": 7336,
      "ein": 7337,
      "iam": 7338,
      "mdr": 7339,
      "sim": 7340,
      "ui": 7341,
      "uum": 7342,
      "vity": 7343,
      "vision": 7344,
      "width": 7345,
      "Ġten": 7346,
      "Ġaug": 7347,
      "init": 7348,
      "inity": 7349,
      "information": 7350,
      "Ġwit": 7351,
      "Ġpars": 7352,
      "Ġmort": 7353,
      "Ġmold": 7354,
      "Ġindu": 7355,
      "Ġdir": 7356,
      "arrow": 7357,
      "edia": 7358,
      "rote": 7359,
      "Ġhob": 7360,
      "Ġrent": 7361,
      "Ġreplic": 7362,
      "entle": 7363,
      "Ġnet": 7364,
      "ilies": 7365,
      "image": 7366,
      "Ġgall": 7367,
      "Ġgone": 7368,
      "std": 7369,
      "idity": 7370,
      "oting": 7371,
      "iger": 7372,
      "irus": 7373,
      "Ġcomplicated": 7374,
      "Ġdeals": 7375,
      "abric": 7376,
      "ĠPaxos": 7377,
      "plom": 7378,
      "estion": 7379,
      "Ġru": 7380,
      "Ġrul": 7381,
      "plex": 7382,
      "ĠBud": 7383,
      "ĠLay": 7384,
      "ĠLife": 7385,
      "Ġcomposed": 7386,
      "itely": 7387,
      "Ġjail": 7388,
      "Ġconsume": 7389,
      "Ġconserv": 7390,
      "ĠStre": 7391,
      "Ġobs": 7392,
      "Ġprocessor": 7393,
      "ĠVirtual": 7394,
      "Ġraises": 7395,
      "Ġoffline": 7396,
      "Ġcharge": 7397,
      "Ġflav": 7398,
      "Ġcoast": 7399,
      "Ġpossess": 7400,
      "redict": 7401,
      "Ġminor": 7402,
      "ĠProblem": 7403,
      "Ġconfident": 7404,
      "Ġconfusion": 7405,
      "Ġstret": 7406,
      "Ġmoved": 7407,
      "ĠShould": 7408,
      "Ġhybrid": 7409,
      "Ġdigits": 7410,
      "azing": 7411,
      "azure": 7412,
      "ĠImage": 7413,
      "shape": 7414,
      "Ġautomated": 7415,
      "Ġradiation": 7416,
      "Ġsecrets": 7417,
      "Ġalternate": 7418,
      "ĠInteg": 7419,
      "ĠIntellig": 7420,
      "Ġcollector": 7421,
      "Ġgender": 7422,
      "Ġintroduce": 7423,
      "Ġsafely": 7424,
      "Ġfalls": 7425,
      "logger": 7426,
      "Ġclosely": 7427,
      "Ġdynamics": 7428,
      "ĠIndust": 7429,
      "Ġregarded": 7430,
      "Ġemerged": 7431,
      "ĠTwo": 7432,
      "Ġrotation": 7433,
      "Ġmicrobi": 7434,
      "ĠUpdate": 7435,
      "frac": 7436,
      "Ġoccup": 7437,
      "Ġpleasure": 7438,
      "ungeon": 7439,
      "Ġtactics": 7440,
      "Ġinflation": 7441,
      "Ġconventions": 7442,
      "ĠBasic": 7443,
      "Ġanxiety": 7444,
      "Ġmysterious": 7445,
      "bruary": 7446,
      "ĠSolidity": 7447,
      "Ġunnecessary": 7448,
      "ibonacci": 7449,
      "49": 7450,
      "Window": 7451,
      "da": 7452,
      "rc": 7453,
      "heim": 7454,
      "orph": 7455,
      "Ġfetch": 7456,
      "Ġdance": 7457,
      "Ġdru": 7458,
      "Ġhits": 7459,
      "Ġyog": 7460,
      "ĠToday": 7461,
      "iminal": 7462,
      "ott": 7463,
      "utch": 7464,
      "ifier": 7465,
      "ayek": 7466,
      "ĠST": 7467,
      "ĠTheorem": 7468,
      "quarter": 7469,
      "Ġsufficient": 7470,
      "ĠProm": 7471,
      "ĠPythag": 7472,
      "ĠMus": 7473,
      "ĠDown": 7474,
      "ĠEd": 7475,
      "ĠEast": 7476,
      "ĠEduc": 7477,
      "ĠLetter": 7478,
      "ĠLarge": 7479,
      "Ġcreature": 7480,
      "Ġjoke": 7481,
      "api": 7482,
      "aven": 7483,
      "Ġarrow": 7484,
      "Ġfunny": 7485,
      "arious": 7486,
      "Ġspin": 7487,
      "lectual": 7488,
      "Ġamb": 7489,
      "Ġpeppers": 7490,
      "Ġcharged": 7491,
      "Ġdistract": 7492,
      "ĠAdv": 7493,
      "Ġpolar": 7494,
      "ĠProper": 7495,
      "Ġrealize": 7496,
      "Ġaccident": 7497,
      "Ġelection": 7498,
      "Ġstatements": 7499,
      "Ġdemocracy": 7500,
      "hereum": 7501,
      "ĠEnergy": 7502,
      "Ġshowing": 7503,
      "Ġinstallation": 7504,
      "Ġhydr": 7505,
      "ucks": 7506,
      "Ġsquares": 7507,
      "Ġgene": 7508,
      "Ġpasta": 7509,
      "Ġautomation": 7510,
      "Ġexperiencing": 7511,
      "Ġpaths": 7512,
      "Ġreaching": 7513,
      "Ġfrequent": 7514,
      "Ġauthorities": 7515,
      "Ġdedication": 7516,
      "ĠBritain": 7517,
      "Ġadventures": 7518,
      "Ġaccordingly": 7519,
      "What": 7520,
      "Ġmistake": 7521,
      "Ġadvancements": 7522,
      "ĠOffice": 7523,
      "Ġreferred": 7524,
      "ĠArtificial": 7525,
      "Ġsuffering": 7526,
      "hello": 7527,
      "Ġrigorous": 7528,
      "Ġholiday": 7529,
      "True": 7530,
      "Ġconvenient": 7531,
      "Ġdisadvantages": 7532,
      "Ġgradient": 7533,
      "Ġanomal": 7534,
      "segments": 7535,
      "Ġbrowsers": 7536,
      "ĠBlender": 7537,
      "ĠEthereum": 7538,
      "56": 7539,
      "==": 7540,
      "CT": 7541,
      "EC": 7542,
      "File": 7543,
      "GI": 7544,
      "Message": 7545,
      "ND": 7546,
      "Open": 7547,
      "Sc": 7548,
      "aid": 7549,
      "flo": 7550,
      "ncy": 7551,
      "overs": 7552,
      "sis": 7553,
      "vation": 7554,
      "âĶ": 7555,
      "Ġtale": 7556,
      "Ġafra": 7557,
      "Ġsays": 7558,
      "Ġwrote": 7559,
      "Ġpil": 7560,
      "Ġoceans": 7561,
      "Ġfails": 7562,
      "Ġbass": 7563,
      "Ġbold": 7564,
      "Ġdram": 7565,
      "Ġdiced": 7566,
      "ĠTom": 7567,
      "Ġforg": 7568,
      "Ġforget": 7569,
      "ĠSorry": 7570,
      "ĠCr": 7571,
      "ĠCity": 7572,
      "Ġexcl": 7573,
      "eren": 7574,
      "ĠPack": 7575,
      "Ġrational": 7576,
      "Ġseven": 7577,
      "ĠDep": 7578,
      "ĠEdit": 7579,
      "ĠEval": 7580,
      "ogether": 7581,
      "lowing": 7582,
      "---": 7583,
      "Ġmodules": 7584,
      "Ġque": 7585,
      "asses": 7586,
      "Ġperhaps": 7587,
      "Ġdesires": 7588,
      "conduct": 7589,
      "ĠStra": 7590,
      "Ġrecy": 7591,
      "Ġrelate": 7592,
      "Ġwhose": 7593,
      "Ġinstinct": 7594,
      "ĠChar": 7595,
      "ĠKramer": 7596,
      "Ġdecades": 7597,
      "Ġmineral": 7598,
      "Ġclassified": 7599,
      "Ġinsight": 7600,
      "Ġarticles": 7601,
      "Ġmeanings": 7602,
      "ĠConf": 7603,
      "Ġboat": 7604,
      "ginx": 7605,
      "Ġcultiv": 7606,
      "Ġprofound": 7607,
      "Ġresponsibility": 7608,
      "Ġstructured": 7609,
      "Ġpreference": 7610,
      "Ġbeginners": 7611,
      "Ġtargeted": 7612,
      "Ġforever": 7613,
      "Ġcircular": 7614,
      "Ġinspire": 7615,
      "ĠSupp": 7616,
      "Ġcommitment": 7617,
      "Ġproposed": 7618,
      "Ġsubstance": 7619,
      "Ġwalls": 7620,
      "ĠPlayers": 7621,
      "Ġuniverses": 7622,
      "Ġcompatibility": 7623,
      "Ġphotosynt": 7624,
      "Ġestimated": 7625,
      "Ġrapidly": 7626,
      "Ġcubic": 7627,
      "Ġopinions": 7628,
      "ĠEncourage": 7629,
      "ĠFacebook": 7630,
      "anitizer": 7631,
      "bohydrates": 7632,
      "âĶĢ": 7633,
      "Ġafraid": 7634,
      "\"?": 7635,
      "''": 7636,
      "'.": 7637,
      "._": 7638,
      "31": 7639,
      "Add": 7640,
      "Be": 7641,
      "Bl": 7642,
      "By": 7643,
      "Ent": 7644,
      "ELEM": 7645,
      "Hz": 7646,
      "IS": 7647,
      "LC": 7648,
      "MA": 7649,
      "]:": 7650,
      "bal": 7651,
      "bell": 7652,
      "ln": 7653,
      "pg": 7654,
      "sal": 7655,
      "tion": 7656,
      "test": 7657,
      "vo": 7658,
      "wik": 7659,
      "zone": 7660,
      "}\")": 7661,
      "ÏĢ": 7662,
      "Ġtorch": 7663,
      "rem": 7664,
      "requ": 7665,
      "onts": 7666,
      "erb": 7667,
      "Ġcock": 7668,
      "iture": 7669,
      "Ġpi": 7670,
      "Ġmission": 7671,
      "Ġbath": 7672,
      "Ġtoler": 7673,
      "Ġinject": 7674,
      "Ġdoll": 7675,
      "aser": 7676,
      "asible": 7677,
      "ctl": 7678,
      "Ġreverse": 7679,
      "Ġrewards": 7680,
      "Ġnation": 7681,
      "Ġbears": 7682,
      "Ġstake": 7683,
      "ifice": 7684,
      "Ġconqu": 7685,
      "ĠSocial": 7686,
      "ĠCB": 7687,
      "riers": 7688,
      "ĠWolf": 7689,
      "ĠWashington": 7690,
      "ĠMall": 7691,
      "Ġseeds": 7692,
      "ĠBox": 7693,
      "ĠBERT": 7694,
      "ĠExt": 7695,
      "udo": 7696,
      "ĠRatio": 7697,
      "arts": 7698,
      "ĠGre": 7699,
      "Ġatoms": 7700,
      "Ġresume": 7701,
      "Ġkill": 7702,
      "Ġkitchen": 7703,
      "Ġclub": 7704,
      "Ġmyst": 7705,
      "Ġdisag": 7706,
      "orders": 7707,
      "Ġpricing": 7708,
      "Ġformer": 7709,
      "Ġtwist": 7710,
      "Ġray": 7711,
      "Ġmostly": 7712,
      "Ġcurious": 7713,
      "Ġdecline": 7714,
      "ĠAdder": 7715,
      "Ġcovers": 7716,
      "Ġmainly": 7717,
      "Ġcorruption": 7718,
      "Ġstudied": 7719,
      "ĠAlpha": 7720,
      "Ġdiabetes": 7721,
      "Ġdiplom": 7722,
      "Ġfinite": 7723,
      "ĠConclusion": 7724,
      "Ġedit": 7725,
      "Ġfounded": 7726,
      "Ġmindful": 7727,
      "ĠShakespeare": 7728,
      "Ġdrinks": 7729,
      "auth": 7730,
      "Ġtreated": 7731,
      "ĠPhot": 7732,
      "Ġsensory": 7733,
      "Ġpresentation": 7734,
      "Ġconcerned": 7735,
      "Ġfrequencies": 7736,
      "--------------------------------": 7737,
      "Ġcleaning": 7738,
      "Ġdestruction": 7739,
      "Ġcivilians": 7740,
      "Ġhappening": 7741,
      "Ġsteel": 7742,
      "Ġsustainability": 7743,
      "Ġnuts": 7744,
      "Ġnutrition": 7745,
      "Ġprecision": 7746,
      "Ġlinked": 7747,
      "ervous": 7748,
      "ĠFebruary": 7749,
      "content": 7750,
      "Ġorders": 7751,
      "Ġcapitalism": 7752,
      "Ġdeviation": 7753,
      "Ġmanufacturing": 7754,
      "ASE": 7755,
      "Ġinventory": 7756,
      "Enter": 7757,
      "ĠPotter": 7758,
      "Ġincredibly": 7759,
      "Ġeliminate": 7760,
      "Ġearthquake": 7761,
      "folder": 7762,
      "Ġbubble": 7763,
      "Ġpuzzles": 7764,
      "ĠTransformer": 7765,
      "ĠMonday": 7766,
      "Ġmicrobiome": 7767,
      "27": 7768,
      "28": 7769,
      "BI": 7770,
      "CH": 7771,
      "Fi": 7772,
      "Form": 7773,
      "Flow": 7774,
      "RO": 7775,
      "ji": 7776,
      "oly": 7777,
      "uations": 7778,
      "Ã¨": 7779,
      "Ġtight": 7780,
      "Ġtong": 7781,
      "erves": 7782,
      "Ġwife": 7783,
      "Ġwomen": 7784,
      "Ġfash": 7785,
      "Ġfont": 7786,
      "Ġmesh": 7787,
      "Ġtokens": 7788,
      "Ġinherent": 7789,
      "omial": 7790,
      "Ġren": 7791,
      "Ġnervous": 7792,
      "Ġgym": 7793,
      "Ġstoring": 7794,
      "ĠAB": 7795,
      "ĠAug": 7796,
      "uns": 7797,
      "ĠSan": 7798,
      "atever": 7799,
      "ĠCap": 7800,
      "ĠCrypt": 7801,
      "ablish": 7802,
      "Ġvine": 7803,
      "ĠWi": 7804,
      "ĠPal": 7805,
      "Ġlean": 7806,
      "ĠBrown": 7807,
      "ĠEAV": 7808,
      "ĠGPIO": 7809,
      "Ġ27": 7810,
      "Ġcompression": 7811,
      "Ġresized": 7812,
      "ĠNode": 7813,
      "Ġspeaking": 7814,
      "Ġcluster": 7815,
      "Ġjewelry": 7816,
      "ĠUser": 7817,
      "berries": 7818,
      "ĠJu": 7819,
      "ĠJew": 7820,
      "energy": 7821,
      "auss": 7822,
      "ologists": 7823,
      "ĠVR": 7824,
      "Ġprogrammers": 7825,
      "Ġregul": 7826,
      "Ġdefines": 7827,
      "ĠReplace": 7828,
      "Ġdependencies": 7829,
      "Ġcorn": 7830,
      "Ġcoral": 7831,
      "ĠProject": 7832,
      "Ġexposed": 7833,
      "Ġending": 7834,
      "Ġendurance": 7835,
      "Ġenth": 7836,
      "Ġdiscipl": 7837,
      "exp": 7838,
      "Ġinvolving": 7839,
      "Ġfeels": 7840,
      "clear": 7841,
      "Ġsites": 7842,
      "Ġtelling": 7843,
      "Ġheaders": 7844,
      "Ġadjustments": 7845,
      "Ġexpectations": 7846,
      "Ġfireplace": 7847,
      "Ġanti": 7848,
      "apping": 7849,
      "Ġputting": 7850,
      "ĠNeural": 7851,
      "Ġplanting": 7852,
      "Ġchemistry": 7853,
      "Ġselecting": 7854,
      "Ġdatasets": 7855,
      "Ġdomin": 7856,
      "ĠMatrix": 7857,
      "response": 7858,
      "Ġtiming": 7859,
      "Ġmagnitude": 7860,
      "ĠResp": 7861,
      "Ġclaims": 7862,
      "Ġempire": 7863,
      "Ġglasses": 7864,
      "Ġtroubles": 7865,
      "Ġvacation": 7866,
      "layer": 7867,
      "Ġdwarves": 7868,
      "ĠTraining": 7869,
      "ĠReturn": 7870,
      "Ġrestaurants": 7871,
      "ĠMagic": 7872,
      "Ġexcessive": 7873,
      "Ġadoption": 7874,
      "Ġintuitive": 7875,
      "ĠTensorFlow": 7876,
      "ĠComputer": 7877,
      "Ġnumerical": 7878,
      "mediate": 7879,
      "Ġintellectual": 7880,
      "Ġfashion": 7881,
      "([": 7882,
      "37": 7883,
      "38": 7884,
      "39": 7885,
      "88": 7886,
      "DC": 7887,
      "JIT": 7888,
      "Key": 7889,
      "LA": 7890,
      "aware": 7891,
      "fil": 7892,
      "ki": 7893,
      "mic": 7894,
      "sl": 7895,
      "sides": 7896,
      "vacy": 7897,
      "Ġtort": 7898,
      "rend": 7899,
      "oned": 7900,
      "Ġcas": 7901,
      "Ġcourage": 7902,
      "itical": 7903,
      "Ġfis": 7904,
      "icip": 7905,
      "Ġloud": 7906,
      "Ġnaming": 7907,
      "Ġnarrow": 7908,
      "char": 7909,
      "Ġstuff": 7910,
      "ifts": 7911,
      "Ġpropri": 7912,
      "Ġconn": 7913,
      "unar": 7914,
      "ĠSn": 7915,
      "ĠCost": 7916,
      "Ġalphabet": 7917,
      "Ġvaries": 7918,
      "ĠHaving": 7919,
      "ĠHayek": 7920,
      "ĠPoint": 7921,
      "ptember": 7922,
      "ĠMo": 7923,
      "ĠMich": 7924,
      "ĠBar": 7925,
      "ĠBrain": 7926,
      "ĠBattle": 7927,
      "ĠDid": 7928,
      "ĠDrag": 7929,
      "ĠFibonacci": 7930,
      "Ġmaps": 7931,
      "ĠLive": 7932,
      "Ġadj": 7933,
      "Ġadults": 7934,
      "Ġcontem": 7935,
      "Ġotherwise": 7936,
      "ĠItaly": 7937,
      "Ġmoderate": 7938,
      "Ġclock": 7939,
      "Ġacid": 7940,
      "Ġacoust": 7941,
      "Ġmanaged": 7942,
      "Ġallies": 7943,
      "Ġunderground": 7944,
      "Ġpartner": 7945,
      "Ġrelies": 7946,
      "Ġplaylist": 7947,
      "Ġrain": 7948,
      "Ġcalories": 7949,
      "Ġpolite": 7950,
      "Ġlongest": 7951,
      "ĠProton": 7952,
      "Ġauto": 7953,
      "Ġconfirm": 7954,
      "Ġreduction": 7955,
      "Ġmusical": 7956,
      "Ġparry": 7957,
      "ĠiP": 7958,
      "Ġgrown": 7959,
      "Ġgrows": 7960,
      "Ġsimilarities": 7961,
      "Ġdriver": 7962,
      "Ġscientist": 7963,
      "ĠWithout": 7964,
      "system": 7965,
      "ĠXbox": 7966,
      "Ġtrend": 7967,
      "Ġgovernments": 7968,
      "à°¿": 7969,
      "Ġidentifying": 7970,
      "Ġsequences": 7971,
      "fortunately": 7972,
      "Ġmeasurements": 7973,
      "Ġobserve": 7974,
      "ĠIncor": 7975,
      "ĠCollect": 7976,
      "Ġrespectively": 7977,
      "Ġpriority": 7978,
      "Ġbedtime": 7979,
      "Ġsymbols": 7980,
      "ĠDataFrame": 7981,
      "Ġdoub": 7982,
      "Ġteaching": 7983,
      "Ġdividing": 7984,
      "ĠClean": 7985,
      "ĠChristmas": 7986,
      "Ġindicates": 7987,
      "Ġgods": 7988,
      "instein": 7989,
      "ĠSpec": 7990,
      "Ġrestaurant": 7991,
      "Ġupgrade": 7992,
      "ĠSolar": 7993,
      "cklaces": 7994,
      "ĠHungarian": 7995,
      "Ġpapers": 7996,
      "ĠSimilarly": 7997,
      "Ġdelivery": 7998,
      "Ġsliced": 7999
    },
    "merges": [
      [
        "Ġ",
        "t"
      ],
      [
        "Ġ",
        "a"
      ],
      [
        "i",
        "n"
      ],
      [
        "h",
        "e"
      ],
      [
        "r",
        "e"
      ],
      [
        "o",
        "n"
      ],
      [
        "č",
        "Ċ"
      ],
      [
        "Ġt",
        "he"
      ],
      [
        "Ġ",
        "s"
      ],
      [
        "e",
        "r"
      ],
      [
        "a",
        "t"
      ],
      [
        "Ġ",
        "c"
      ],
      [
        "o",
        "r"
      ],
      [
        "n",
        "d"
      ],
      [
        "e",
        "s"
      ],
      [
        "o",
        "u"
      ],
      [
        "i",
        "t"
      ],
      [
        "Ġ",
        "w"
      ],
      [
        "e",
        "n"
      ],
      [
        "i",
        "s"
      ],
      [
        "Ġ",
        "p"
      ],
      [
        "Ġ",
        "o"
      ],
      [
        "a",
        "n"
      ],
      [
        "in",
        "g"
      ],
      [
        "Ġ",
        "f"
      ],
      [
        "Ġ",
        "m"
      ],
      [
        "Ġa",
        "nd"
      ],
      [
        "a",
        "l"
      ],
      [
        "Ġ",
        "b"
      ],
      [
        "Ġt",
        "o"
      ],
      [
        "Ġ",
        "Ġ"
      ],
      [
        "Ġ",
        "in"
      ],
      [
        "l",
        "e"
      ],
      [
        "Ġ",
        "d"
      ],
      [
        "Ġo",
        "f"
      ],
      [
        "a",
        "r"
      ],
      [
        "i",
        "c"
      ],
      [
        "i",
        "on"
      ],
      [
        "e",
        "d"
      ],
      [
        "r",
        "o"
      ],
      [
        "Ġt",
        "h"
      ],
      [
        "Ġ",
        "e"
      ],
      [
        "a",
        "s"
      ],
      [
        "Ġ",
        "čĊ"
      ],
      [
        "Ġ",
        "h"
      ],
      [
        "c",
        "t"
      ],
      [
        "o",
        "m"
      ],
      [
        "Ġ",
        "y"
      ],
      [
        "Ġ",
        "l"
      ],
      [
        "Ġ",
        "re"
      ],
      [
        "Ġ",
        "["
      ],
      [
        "en",
        "t"
      ],
      [
        "u",
        "s"
      ],
      [
        "Ġy",
        "ou"
      ],
      [
        "v",
        "e"
      ],
      [
        "Ġ",
        "n"
      ],
      [
        "e",
        "t"
      ],
      [
        "Ġ",
        "is"
      ],
      [
        "Ġ",
        "T"
      ],
      [
        "i",
        "l"
      ],
      [
        "Ġ",
        "I"
      ],
      [
        "i",
        "m"
      ],
      [
        "Ġ",
        "g"
      ],
      [
        "o",
        "w"
      ],
      [
        "c",
        "e"
      ],
      [
        "Ġb",
        "e"
      ],
      [
        "c",
        "h"
      ],
      [
        "Ġf",
        "or"
      ],
      [
        "s",
        "t"
      ],
      [
        "l",
        "y"
      ],
      [
        "r",
        "a"
      ],
      [
        "Ġth",
        "at"
      ],
      [
        "i",
        "d"
      ],
      [
        "at",
        "ion"
      ],
      [
        "o",
        "l"
      ],
      [
        "o",
        "t"
      ],
      [
        "u",
        "t"
      ],
      [
        "i",
        "g"
      ],
      [
        "Ġs",
        "t"
      ],
      [
        "Ġ",
        "on"
      ],
      [
        "i",
        "f"
      ],
      [
        "Ġ",
        "A"
      ],
      [
        "Ġp",
        "ro"
      ],
      [
        "e",
        "l"
      ],
      [
        "a",
        "m"
      ],
      [
        "ĠĠ",
        "ĠĠ"
      ],
      [
        "Ġ",
        "it"
      ],
      [
        "u",
        "l"
      ],
      [
        "v",
        "er"
      ],
      [
        "it",
        "h"
      ],
      [
        "Ġa",
        "s"
      ],
      [
        "Ġc",
        "on"
      ],
      [
        "a",
        "y"
      ],
      [
        "Ġc",
        "an"
      ],
      [
        "o",
        "d"
      ],
      [
        "u",
        "r"
      ],
      [
        "Ġa",
        "re"
      ],
      [
        "Ġa",
        "n"
      ],
      [
        "u",
        "n"
      ],
      [
        "Ġ",
        "S"
      ],
      [
        "Ġ",
        "us"
      ],
      [
        "Ġw",
        "ith"
      ],
      [
        "Ġ",
        "or"
      ],
      [
        "at",
        "e"
      ],
      [
        "Ġ",
        "C"
      ],
      [
        "ĠT",
        "he"
      ],
      [
        "k",
        "e"
      ],
      [
        "i",
        "r"
      ],
      [
        "s",
        "e"
      ],
      [
        "g",
        "e"
      ],
      [
        "p",
        "e"
      ],
      [
        "l",
        "d"
      ],
      [
        "Ġe",
        "x"
      ],
      [
        "Ġa",
        "l"
      ],
      [
        "u",
        "m"
      ],
      [
        "Ġc",
        "om"
      ],
      [
        "Ġw",
        "h"
      ],
      [
        "t",
        "er"
      ],
      [
        "he",
        "r"
      ],
      [
        "a",
        "d"
      ],
      [
        "q",
        "u"
      ],
      [
        "u",
        "re"
      ],
      [
        "es",
        "s"
      ],
      [
        "er",
        "s"
      ],
      [
        "Ġd",
        "e"
      ],
      [
        "Ġyou",
        "r"
      ],
      [
        "a",
        "b"
      ],
      [
        "is",
        "t"
      ],
      [
        "Ġ",
        "v"
      ],
      [
        "r",
        "i"
      ],
      [
        "O",
        "S"
      ],
      [
        "U",
        "S"
      ],
      [
        "Ġ",
        "H"
      ],
      [
        "an",
        "t"
      ],
      [
        "E",
        "R"
      ],
      [
        "S",
        "S"
      ],
      [
        "e",
        "re"
      ],
      [
        "A",
        "N"
      ],
      [
        "S",
        "T"
      ],
      [
        "ou",
        "ld"
      ],
      [
        "Ġ",
        "he"
      ],
      [
        "o",
        "re"
      ],
      [
        "Ġ",
        "W"
      ],
      [
        "AN",
        "T"
      ],
      [
        "A",
        "SS"
      ],
      [
        "I",
        "ST"
      ],
      [
        "US",
        "ER"
      ],
      [
        "Ġs",
        "u"
      ],
      [
        "E",
        "OS"
      ],
      [
        "ASS",
        "IST"
      ],
      [
        "ASSIST",
        "ANT"
      ],
      [
        "Ġh",
        "a"
      ],
      [
        "it",
        "y"
      ],
      [
        "e",
        "m"
      ],
      [
        "ĠĠ",
        "Ġ"
      ],
      [
        "Ġ",
        "P"
      ],
      [
        "p",
        "l"
      ],
      [
        "o",
        "p"
      ],
      [
        "'",
        "s"
      ],
      [
        "es",
        "t"
      ],
      [
        "Ġ",
        "-"
      ],
      [
        "Ġn",
        "e"
      ],
      [
        "p",
        "t"
      ],
      [
        "ou",
        "t"
      ],
      [
        "m",
        "ent"
      ],
      [
        "or",
        "t"
      ],
      [
        "a",
        "in"
      ],
      [
        "ig",
        "h"
      ],
      [
        "a",
        "c"
      ],
      [
        "i",
        "ve"
      ],
      [
        "Ġ",
        "im"
      ],
      [
        "e",
        "ct"
      ],
      [
        "Ġ",
        "1"
      ],
      [
        "i",
        "es"
      ],
      [
        "Ġ",
        "M"
      ],
      [
        "t",
        "h"
      ],
      [
        "Ġc",
        "h"
      ],
      [
        "Ġ",
        "\""
      ],
      [
        "il",
        "l"
      ],
      [
        "o",
        "c"
      ],
      [
        "o",
        "s"
      ],
      [
        "Ġ",
        "r"
      ],
      [
        "n",
        "t"
      ],
      [
        "Ġ",
        "le"
      ],
      [
        "p",
        "le"
      ],
      [
        "Ġs",
        "e"
      ],
      [
        "Ġ",
        "("
      ],
      [
        "ion",
        "s"
      ],
      [
        "Ġb",
        "y"
      ],
      [
        "Ġ",
        "B"
      ],
      [
        "i",
        "z"
      ],
      [
        "om",
        "e"
      ],
      [
        "Ġ",
        "D"
      ],
      [
        "Ġha",
        "ve"
      ],
      [
        "i",
        "al"
      ],
      [
        "Ġm",
        "e"
      ],
      [
        "Ġ",
        "F"
      ],
      [
        "ic",
        "al"
      ],
      [
        "p",
        "p"
      ],
      [
        "igh",
        "t"
      ],
      [
        "a",
        "ge"
      ],
      [
        "ro",
        "m"
      ],
      [
        "Ġ",
        "en"
      ],
      [
        "a",
        "ct"
      ],
      [
        "in",
        "e"
      ],
      [
        "ou",
        "r"
      ],
      [
        "i",
        "v"
      ],
      [
        "Ġs",
        "h"
      ],
      [
        "ĠT",
        "h"
      ],
      [
        "Ġm",
        "a"
      ],
      [
        "Ġ",
        "E"
      ],
      [
        "id",
        "e"
      ],
      [
        "Ġn",
        "ot"
      ],
      [
        "Ġp",
        "l"
      ],
      [
        "re",
        "s"
      ],
      [
        "u",
        "d"
      ],
      [
        "Ġw",
        "or"
      ],
      [
        "p",
        "er"
      ],
      [
        "Ġin",
        "t"
      ],
      [
        "Ġf",
        "rom"
      ],
      [
        "Ġ",
        "R"
      ],
      [
        "a",
        "nd"
      ],
      [
        "Ġ",
        "u"
      ],
      [
        "t",
        "her"
      ],
      [
        "ar",
        "t"
      ],
      [
        "Ġ",
        "G"
      ],
      [
        "o",
        "g"
      ],
      [
        "Ġ",
        "L"
      ],
      [
        "us",
        "t"
      ],
      [
        "Ġ",
        "2"
      ],
      [
        "Ġa",
        "b"
      ],
      [
        "ic",
        "h"
      ],
      [
        "Ġim",
        "p"
      ],
      [
        "al",
        "l"
      ],
      [
        "Ġa",
        "t"
      ],
      [
        "or",
        "m"
      ],
      [
        "Ġa",
        "d"
      ],
      [
        "i",
        "le"
      ],
      [
        "Ġw",
        "e"
      ],
      [
        "Ġth",
        "is"
      ],
      [
        "Ġm",
        "ore"
      ],
      [
        "Ġ",
        "O"
      ],
      [
        "el",
        "l"
      ],
      [
        "Ġin",
        "c"
      ],
      [
        "ĠI",
        "n"
      ],
      [
        "ul",
        "t"
      ],
      [
        "a",
        "re"
      ],
      [
        "ab",
        "le"
      ],
      [
        "Ġcon",
        "t"
      ],
      [
        "Ġcom",
        "p"
      ],
      [
        "i",
        "b"
      ],
      [
        "`",
        "`"
      ],
      [
        "Ġre",
        "s"
      ],
      [
        "a",
        "g"
      ],
      [
        "k",
        "ing"
      ],
      [
        "ation",
        "s"
      ],
      [
        "am",
        "e"
      ],
      [
        "ar",
        "d"
      ],
      [
        "Ġd",
        "o"
      ],
      [
        "ĠTh",
        "is"
      ],
      [
        "r",
        "ou"
      ],
      [
        "Ġwh",
        "ich"
      ],
      [
        "Ġ",
        "="
      ],
      [
        "c",
        "ess"
      ],
      [
        "f",
        "f"
      ],
      [
        "Ġthe",
        "ir"
      ],
      [
        "l",
        "ow"
      ],
      [
        "Ġo",
        "ther"
      ],
      [
        "u",
        "e"
      ],
      [
        "ct",
        "ion"
      ],
      [
        "ve",
        "l"
      ],
      [
        "Ġ",
        "k"
      ],
      [
        "in",
        "d"
      ],
      [
        "Ġus",
        "e"
      ],
      [
        "i",
        "re"
      ],
      [
        "k",
        "s"
      ],
      [
        "an",
        "ce"
      ],
      [
        "f",
        "orm"
      ],
      [
        "-",
        "-"
      ],
      [
        "Ġ",
        "N"
      ],
      [
        "Ġs",
        "ome"
      ],
      [
        "s",
        "o"
      ],
      [
        "r",
        "y"
      ],
      [
        "an",
        "g"
      ],
      [
        "Ġw",
        "he"
      ],
      [
        "d",
        "u"
      ],
      [
        "Ġs",
        "pe"
      ],
      [
        "e",
        "p"
      ],
      [
        "Ġt",
        "e"
      ],
      [
        "as",
        "e"
      ],
      [
        "i",
        "ke"
      ],
      [
        "an",
        "s"
      ],
      [
        "Ġ",
        "un"
      ],
      [
        "i",
        "e"
      ],
      [
        "Ġsu",
        "ch"
      ],
      [
        "o",
        "st"
      ],
      [
        "Ġw",
        "as"
      ],
      [
        "ĠI",
        "t"
      ],
      [
        "if",
        "f"
      ],
      [
        "Ġw",
        "ill"
      ],
      [
        "g",
        "h"
      ],
      [
        "im",
        "e"
      ],
      [
        "Ġs",
        "c"
      ],
      [
        "Ġc",
        "re"
      ],
      [
        "a",
        "ch"
      ],
      [
        "Ġ",
        "3"
      ],
      [
        "Ġhe",
        "l"
      ],
      [
        "en",
        "ce"
      ],
      [
        "Ġh",
        "as"
      ],
      [
        "Ġs",
        "y"
      ],
      [
        "ĠW",
        "h"
      ],
      [
        "ig",
        "n"
      ],
      [
        "Ġm",
        "od"
      ],
      [
        "Ġ",
        "Y"
      ],
      [
        "Ġhel",
        "p"
      ],
      [
        "Ġ",
        "qu"
      ],
      [
        "Ġd",
        "iff"
      ],
      [
        "at",
        "ed"
      ],
      [
        "ou",
        "s"
      ],
      [
        "Ġ",
        "if"
      ],
      [
        "Ġb",
        "ut"
      ],
      [
        "o",
        "o"
      ],
      [
        "Ġc",
        "l"
      ],
      [
        "Ġf",
        "e"
      ],
      [
        "it",
        "e"
      ],
      [
        "ic",
        "e"
      ],
      [
        "Ġw",
        "ould"
      ],
      [
        "as",
        "t"
      ],
      [
        "c",
        "es"
      ],
      [
        "Ġa",
        "c"
      ],
      [
        "Ġd",
        "at"
      ],
      [
        "Ġm",
        "an"
      ],
      [
        "Ġ",
        "j"
      ],
      [
        "or",
        "y"
      ],
      [
        "Ġl",
        "ike"
      ],
      [
        "Ġthe",
        "y"
      ],
      [
        "Ġg",
        "o"
      ],
      [
        "if",
        "ic"
      ],
      [
        "Ġt",
        "ra"
      ],
      [
        "Ġal",
        "so"
      ],
      [
        "ar",
        "y"
      ],
      [
        "ac",
        "k"
      ],
      [
        "as",
        "s"
      ],
      [
        "Ġs",
        "o"
      ],
      [
        "a",
        "p"
      ],
      [
        "on",
        "g"
      ],
      [
        "a",
        "ce"
      ],
      [
        "ĠĠĠĠ",
        "ĠĠĠĠ"
      ],
      [
        "it",
        "ion"
      ],
      [
        "Ġm",
        "ay"
      ],
      [
        "u",
        "al"
      ],
      [
        "l",
        "ud"
      ],
      [
        "ra",
        "m"
      ],
      [
        "Ġcom",
        "m"
      ],
      [
        "i",
        "p"
      ],
      [
        "Ġan",
        "y"
      ],
      [
        "x",
        "t"
      ],
      [
        "Ġcon",
        "s"
      ],
      [
        "Ġne",
        "ed"
      ],
      [
        "a",
        "v"
      ],
      [
        "in",
        "t"
      ],
      [
        "Ġ",
        "U"
      ],
      [
        "Ġpro",
        "v"
      ],
      [
        "st",
        "em"
      ],
      [
        "n",
        "ow"
      ],
      [
        "Ġa",
        "r"
      ],
      [
        "Ġab",
        "out"
      ],
      [
        "et",
        "w"
      ],
      [
        "j",
        "ect"
      ],
      [
        "Ġex",
        "am"
      ],
      [
        "nd",
        "er"
      ],
      [
        "Ġh",
        "ow"
      ],
      [
        "Ġus",
        "ed"
      ],
      [
        "Ġ",
        "out"
      ],
      [
        "Ġinc",
        "lud"
      ],
      [
        "r",
        "u"
      ],
      [
        "Ġe",
        "v"
      ],
      [
        "or",
        "s"
      ],
      [
        "Ġu",
        "p"
      ],
      [
        "i",
        "ent"
      ],
      [
        "Ġ",
        "ro"
      ],
      [
        "Ġthe",
        "m"
      ],
      [
        "Ġp",
        "er"
      ],
      [
        "0",
        "0"
      ],
      [
        "Ġdat",
        "a"
      ],
      [
        "od",
        "e"
      ],
      [
        "Ġimp",
        "ort"
      ],
      [
        "Ġd",
        "es"
      ],
      [
        "ĠH",
        "ow"
      ],
      [
        "Ġc",
        "ould"
      ],
      [
        "b",
        "er"
      ],
      [
        "Ġspe",
        "c"
      ],
      [
        "Ġp",
        "re"
      ],
      [
        "on",
        "e"
      ],
      [
        "Ġit",
        "s"
      ],
      [
        "en",
        "s"
      ],
      [
        "res",
        "s"
      ],
      [
        "Ġon",
        "e"
      ],
      [
        "Ġdiff",
        "ere"
      ],
      [
        "Ġf",
        "un"
      ],
      [
        "Ġm",
        "y"
      ],
      [
        "Ġt",
        "ime"
      ],
      [
        "Ġsy",
        "stem"
      ],
      [
        "Ġal",
        "l"
      ],
      [
        "Ġd",
        "is"
      ],
      [
        "e",
        "nd"
      ],
      [
        "Ġt",
        "a"
      ],
      [
        "Ġus",
        "ing"
      ],
      [
        "Ġthe",
        "re"
      ],
      [
        "ic",
        "s"
      ],
      [
        "Ġ",
        "J"
      ],
      [
        "Ġk",
        "now"
      ],
      [
        "ar",
        "n"
      ],
      [
        "Ġo",
        "ver"
      ],
      [
        "ar",
        "i"
      ],
      [
        "Ġt",
        "r"
      ],
      [
        "Ġma",
        "ke"
      ],
      [
        "en",
        "er"
      ],
      [
        "at",
        "ing"
      ],
      [
        "ĠY",
        "ou"
      ],
      [
        "Ġint",
        "o"
      ],
      [
        "a",
        "il"
      ],
      [
        "Ġ",
        "4"
      ],
      [
        "ĠWh",
        "at"
      ],
      [
        "c",
        "on"
      ],
      [
        "at",
        "ure"
      ],
      [
        "Ġ",
        "|"
      ],
      [
        "Ġs",
        "p"
      ],
      [
        "Ġne",
        "w"
      ],
      [
        "at",
        "er"
      ],
      [
        "Ġ",
        "ke"
      ],
      [
        "ou",
        "nt"
      ],
      [
        "f",
        "ul"
      ],
      [
        "Ġc",
        "ol"
      ],
      [
        "ĠĠĠĠ",
        "ĠĠĠ"
      ],
      [
        "vel",
        "op"
      ],
      [
        "Ġad",
        "d"
      ],
      [
        "p",
        "ut"
      ],
      [
        "Ġthe",
        "se"
      ],
      [
        "``",
        "`"
      ],
      [
        "Ġin",
        "ter"
      ],
      [
        "le",
        "d"
      ],
      [
        "u",
        "b"
      ],
      [
        "Ġs",
        "er"
      ],
      [
        "ĠS",
        "t"
      ],
      [
        "Ġwh",
        "at"
      ],
      [
        "Ġ",
        "5"
      ],
      [
        "f",
        "t"
      ],
      [
        "Ġs",
        "im"
      ],
      [
        "on",
        "s"
      ],
      [
        "Ġ",
        "*"
      ],
      [
        "or",
        "d"
      ],
      [
        "er",
        "m"
      ],
      [
        "iz",
        "e"
      ],
      [
        "ĠI",
        "f"
      ],
      [
        "al",
        "ly"
      ],
      [
        "ib",
        "le"
      ],
      [
        "Ġmod",
        "el"
      ],
      [
        "re",
        "e"
      ],
      [
        "Ġe",
        "m"
      ],
      [
        "Ġsh",
        "ould"
      ],
      [
        "Ġre",
        "c"
      ],
      [
        "Ġu",
        "nder"
      ],
      [
        "Ġw",
        "ay"
      ],
      [
        "ul",
        "ar"
      ],
      [
        "Ġ",
        "```"
      ],
      [
        "Ġv",
        "al"
      ],
      [
        "l",
        "es"
      ],
      [
        "il",
        "ity"
      ],
      [
        "Ġe",
        "ff"
      ],
      [
        "Ġt",
        "y"
      ],
      [
        "Ġa",
        "pp"
      ],
      [
        "Ġa",
        "p"
      ],
      [
        "Ġp",
        "h"
      ],
      [
        "Ġp",
        "r"
      ],
      [
        "il",
        "d"
      ],
      [
        "ing",
        "s"
      ],
      [
        "c",
        "k"
      ],
      [
        "an",
        "ge"
      ],
      [
        "et",
        "h"
      ],
      [
        "Ġn",
        "um"
      ],
      [
        "Ġpro",
        "g"
      ],
      [
        "ent",
        "s"
      ],
      [
        "le",
        "ct"
      ],
      [
        "Ġc",
        "ode"
      ],
      [
        "as",
        "ed"
      ],
      [
        "l",
        "l"
      ],
      [
        "Ġexam",
        "ple"
      ],
      [
        "â",
        "Ģ"
      ],
      [
        "Ġin",
        "d"
      ],
      [
        "Ġp",
        "art"
      ],
      [
        "Ġwor",
        "k"
      ],
      [
        "Ġa",
        "m"
      ],
      [
        "Ġe",
        "ach"
      ],
      [
        "Ġre",
        "qu"
      ],
      [
        "ang",
        "u"
      ],
      [
        "a",
        "us"
      ],
      [
        "Ġg",
        "ener"
      ],
      [
        "Ġp",
        "os"
      ],
      [
        "ver",
        "y"
      ],
      [
        "Ġre",
        "l"
      ],
      [
        "Ġdiffere",
        "nt"
      ],
      [
        "Ġo",
        "b"
      ],
      [
        "Ġde",
        "velop"
      ],
      [
        "ĠH",
        "ere"
      ],
      [
        "ment",
        "s"
      ],
      [
        "Ġs",
        "et"
      ],
      [
        "Ġwh",
        "o"
      ],
      [
        "Ġle",
        "arn"
      ],
      [
        "Ġ",
        "#"
      ],
      [
        "ou",
        "nd"
      ],
      [
        "Ġh",
        "is"
      ],
      [
        "ol",
        "og"
      ],
      [
        "'",
        "t"
      ],
      [
        "ver",
        "s"
      ],
      [
        "Ġwhe",
        "n"
      ],
      [
        "o",
        "ve"
      ],
      [
        "rou",
        "gh"
      ],
      [
        "Ġst",
        "r"
      ],
      [
        "Ġl",
        "angu"
      ],
      [
        "ri",
        "b"
      ],
      [
        "Ġp",
        "o"
      ],
      [
        "at",
        "es"
      ],
      [
        "Ġfun",
        "ction"
      ],
      [
        "p",
        "h"
      ],
      [
        "p",
        "en"
      ],
      [
        "Ġp",
        "e"
      ],
      [
        "e",
        "en"
      ],
      [
        "Ġpro",
        "cess"
      ],
      [
        "Ġb",
        "u"
      ],
      [
        "ur",
        "n"
      ],
      [
        "o",
        "se"
      ],
      [
        "it",
        "ies"
      ],
      [
        "r",
        "it"
      ],
      [
        "Ġf",
        "ol"
      ],
      [
        "ro",
        "w"
      ],
      [
        "Ġv",
        "ari"
      ],
      [
        "Ġth",
        "an"
      ],
      [
        "etw",
        "een"
      ],
      [
        "ow",
        "er"
      ],
      [
        "Ġh",
        "um"
      ],
      [
        "ic",
        "k"
      ],
      [
        "Ġman",
        "y"
      ],
      [
        "is",
        "e"
      ],
      [
        "Ġb",
        "etween"
      ],
      [
        "g",
        "et"
      ],
      [
        "--",
        "--"
      ],
      [
        "Ġimport",
        "ant"
      ],
      [
        "ag",
        "es"
      ],
      [
        "Ġfor",
        "m"
      ],
      [
        "Ġt",
        "w"
      ],
      [
        "y",
        "s"
      ],
      [
        "Ġs",
        "m"
      ],
      [
        "Ġin",
        "st"
      ],
      [
        "Ġ",
        "V"
      ],
      [
        "Ġw",
        "ant"
      ],
      [
        "Ġex",
        "pl"
      ],
      [
        "Ġpl",
        "ay"
      ],
      [
        "o",
        "v"
      ],
      [
        "Ġ",
        "ra"
      ],
      [
        "at",
        "ive"
      ],
      [
        "Ġa",
        "ct"
      ],
      [
        "Ġg",
        "et"
      ],
      [
        "o",
        "b"
      ],
      [
        "o",
        "od"
      ],
      [
        "er",
        "g"
      ],
      [
        "Ġin",
        "v"
      ],
      [
        "n",
        "e"
      ],
      [
        "is",
        "h"
      ],
      [
        "t",
        "ain"
      ],
      [
        "Ġd",
        "et"
      ],
      [
        "ter",
        "n"
      ],
      [
        "rou",
        "nd"
      ],
      [
        "it",
        "s"
      ],
      [
        "Ġbe",
        "c"
      ],
      [
        "oo",
        "k"
      ],
      [
        "at",
        "h"
      ],
      [
        "Ġof",
        "f"
      ],
      [
        "ĠA",
        "s"
      ],
      [
        "Ġprog",
        "ram"
      ],
      [
        "Ġth",
        "rough"
      ],
      [
        "ot",
        "h"
      ],
      [
        "pe",
        "nd"
      ],
      [
        "Ġp",
        "ers"
      ],
      [
        "e",
        "ver"
      ],
      [
        "ri",
        "pt"
      ],
      [
        "t",
        "e"
      ],
      [
        "ar",
        "s"
      ],
      [
        "g",
        "g"
      ],
      [
        "ch",
        "n"
      ],
      [
        "ic",
        "t"
      ],
      [
        "Ġpro",
        "du"
      ],
      [
        "ou",
        "gh"
      ],
      [
        "i",
        "a"
      ],
      [
        "Ġex",
        "per"
      ],
      [
[...]
